{"version":"1.0","truncation":null,"padding":null,"added_tokens":[{"id":0,"content":"[PAD]","single_word":false,"lstrip":false,"rstrip":false,"normalized":false,"special":true},{"id":1,"content":"[BOS]","single_word":false,"lstrip":false,"rstrip":false,"normalized":false,"special":true},{"id":2,"content":"[EOS]","single_word":false,"lstrip":false,"rstrip":false,"normalized":false,"special":true}],"normalizer":null,"pre_tokenizer":{"type":"ByteLevel","add_prefix_space":false,"trim_offsets":true,"use_regex":true},"post_processor":null,"decoder":null,"model":{"type":"BPE","dropout":null,"unk_token":null,"continuing_subword_prefix":null,"end_of_word_suffix":null,"fuse_unk":false,"byte_fallback":false,"vocab":{"[PAD]":0,"[BOS]":1,"[EOS]":2,"!":3,"\"":4,"#":5,"$":6,"%":7,"&":8,"'":9,"(":10,")":11,"*":12,"+":13,",":14,"-":15,".":16,"/":17,"0":18,"1":19,"2":20,"3":21,"4":22,"5":23,"6":24,"7":25,"8":26,"9":27,":":28,";":29,"<":30,"=":31,">":32,"?":33,"@":34,"A":35,"B":36,"C":37,"D":38,"E":39,"F":40,"G":41,"H":42,"I":43,"J":44,"K":45,"L":46,"M":47,"N":48,"O":49,"P":50,"Q":51,"R":52,"S":53,"T":54,"U":55,"V":56,"W":57,"X":58,"Y":59,"Z":60,"[":61,"\\":62,"]":63,"^":64,"_":65,"`":66,"a":67,"b":68,"c":69,"d":70,"e":71,"f":72,"g":73,"h":74,"i":75,"j":76,"k":77,"l":78,"m":79,"n":80,"o":81,"p":82,"q":83,"r":84,"s":85,"t":86,"u":87,"v":88,"w":89,"x":90,"y":91,"z":92,"{":93,"|":94,"}":95,"~":96,"¦":97,"¹":98,"Â":99,"Ã":100,"â":101,"Ċ":102,"Ġ":103,"Ģ":104,"Ĳ":105,"ĵ":106,"Ļ":107,"ł":108,"Ġ\\":109,"_{":110,"^{":111,"ra":112,"}\\":113,"ig":114,"ta":115,"ma":116,"in":117,"}{":118,"fra":119,"frac":120,"le":121,"al":122,"(\\":123,"th":124,"ft":125,"ar":126,"{\\":127,"Ġ=":128,"ph":129,"am":130,",\\":131,"eta":132,"igh":133,"righ":134,"ti":135,"_{\\":136,"left":137,"right":138,"math":139,"}(":140,")\\":141,"de":142,"}^{":143,"=\\":144,"}}":145,"Ġ&":146,"-\\":147,"su":148,"Ġ+":149,"ot":150,"dot":151,"pha":152,"alpha":153,"me":154,"si":155,"da":156,"sum":157,"amb":158,"ambda":159,"Ġ(":160,"})":161,"Ġ-":162,"er":163,"psi":164,"+\\":165,"lambda":166,"phi":167,"mu":168,"lo":169,")}":170,"}^":171,"^{\\":172,"lta":173,"amma":174,"int":175,"ga":176,"par":177,"tial":178,"partial":179,"^{-":180,"}{\\":181,"cal":182,"_\\":183,"mathb":184,"ĠĊ":185,"big":186,"var":187,"},":188,"mega":189,"la":190,"beta":191,"cdot":192,"Ġx":193,"igma":194,"ver":195,"Ġ\\\\":196,"pi":197,"inft":198,"infty":199,"Ġ0":200,"}_{":201,"lon":202,"Ġd":203,"mathcal":204,"nd":205,"lde":206,"tilde":207,"theta":208,"}_":209,"|\\":210,"gamma":211,"Ġ1":212,"psilon":213,"rm":214,"sigma":215,")=":216,"),":217,"epsilon":218,"ng":219,"ll":220,"xi":221,"ho":222,"delta":223,"tau":224,"ngle":225,"eg":226,"end":227,"beg":228,"begin":229,"nu":230,"leq":231,"rho":232,"over":233,"^\\":234,"at":235,"hi":236,").":237,"}.":238,"Ġu":239,"bar":240,"hat":241,"}(\\":242,")^":243,"dots":244,"ri":245,"\\\\":246,"Ġf":247,"omega":248,"ab":249,"ge":250,"bo":251,"ro":252,"mathbb":253,"se":254,"}}\\":255,")=\\":256,"Ġa":257,"sq":258,"ell":259,"rt":260,"Ġ2":261,"im":262,"}^{\\":263,"sqrt":264,"Ġt":265,"varphi":266,"Big":267,"mes":268,"times":269,"}=":270,"ray":271,"array":272,"Ġe":273,"^{(":274,"nab":275,"nabla":276,"Ġ\\,":277,"mathbf":278,"lim":279,")^{":280,"De":281,"Ġi":282,"Delta":283,"ap":284,"ine":285,"line":286,"Ġ{\\":287,"Ġ(\\":288,"qu":289,"}+":290,"))":291,"Ġn":292,"^*":293,"\\,":294,"Omega":295,"ĠA":296,"wi":297,"\\|":298,"mbo":299,"Ġ{":300,"}-":301,"Gamma":302,"ex":303,"wide":304,"rangle":305,"ed":306,"to":307,"&\\":308,"tri":309,"Ġ,":310,"Ġg":311,"Ġv":312,"varepsilon":313,"},\\":314,"overline":315,"mathrm":316,"Ġp":317,"}=\\":318,"Ġ&=":319,"log":320,"Ġy":321,"Ġ|":322,"Ġk":323,"langle":324,"[\\":325,"matri":326,"matrix":327,")(":328,"Phi":329,"Ġ}":330,"ad":331,"&=":332,"Ġz":333,"|^":334,"}}{":335,")}\\":336,"Ġc":337,"cdots":338,":=":339,";\\":340,"st":341,"quad":342,"pa":343,"chi":344,"Ġb":345,"ĠC":346,"tar":347,"Ġr":348,"Ġ.":349,")}{":350,"ldots":351,"ĠT":352,"\\{":353,"geq":354,"ĠX":355,"Ġs":356,"otimes":357,"pro":358,"bf":359,"ĠF":360,"ĠB":361,"zeta":362,"Ġq":363,"mbox":364,")+":365,"ca":366,")-":367,"Ġh":368,"case":369,"cases":370,"}_{\\":371,"row":372,"ĠL":373,"ĠR":374,"}+\\":375,"ĠP":376,"ĠH":377,"Ġm":378,"kap":379,"kappa":380,"ĠS":381,"ĠD":382,"Lambda":383,"ve":384,"prod":385,"ij":386,"it":387,"rc":388,"Ġ[":389,"tarrow":390,"pm":391,"ĠE":392,"})\\":393,"ĠM":394,"~~":395,"Ġj":396,"co":397,"Ġ-\\":398,"set":399,"widetilde":400,"rightarrow":401,"Ġw":402,"tex":403,"pri":404,"prime":405,"ci":406,"circ":407,"ĠV":408,"{(":409,"Ġ=\\":410,"ign":411,"text":412,"ĠN":413,"12":414,"vert":415,"Psi":416,"bigg":417,"align":418,"ĠI":419,"its":420,"aligned":421,"limits":422,"),\\":423,"}\\,":424,"ds":425,"&=\\":426,"Ġ_{":427,"ĠG":428,":=\\":429,"pmatrix":430,"}-\\":431,"or":432,"}^{(":433,"}|":434,"vec":435,"Ġ)":436,"}^\\":437,"'(":438,"Ġ\\;":439,"ther":440,"op":441,")\\\\":442,")}(":443,"^{-\\":444,"Ġ\\|":445,")\\,":446,"(-":447,"sin":448,"Ġ&\\":449,"dx":450,")|":451,"ĠK":452,"us":453,"frak":454,"}}(":455,"eq":456,"min":457,"gather":458,")+\\":459,"Ġ\\{":460,"ĠU":461,"*}":462,"ĠQ":463,")^{-":464,"Ġ:=":465,"..":466,"widehat":467,"cos":468,"cap":469,"edge":470,",\\\\":471,"wedge":472,"up":473,"exp":474,"\\}":475,"mathfrak":476,"ast":477,"_{(":478,"ck":479,"\\{\\":480,"Ġ+\\":481,"dt":482,"cc":483,")^{\\":484,"ĠW":485,"sup":486,"}}{\\":487,"ĠJ":488,"om":489,"ert":490,"Vert":491,"sub":492,"iv":493,"bin":494,"binom":495,")}{\\":496,"_{-":497,"un":498,"^+":499,")-\\":500,"]\\":501,"}\\\\":502,"der":503,"Sigma":504,"Ġ<":505,",\\,":506,"under":507,"}^{-":508,"cup":509,"Ġ|\\":510,"bol":511,"}{(":512,"ĠY":513,"Ġ}\\":514,".\\":515,"}]":516,"ĠZ":517,"fo":518,"max":519,"id":520,"|_{":521,"rall":522,"forall":523,"ce":524,"yle":525,"style":526,"_+":527,"ln":528,"!\\":529,"ymbo":530,"ymbol":531,"dsymbol":532,"boldsymbol":533,")_{":534,"\\|_{":535,"qquad":536,"''":537,"di":538,"mid":539,"}},":540,"equ":541,")_":542,"Ġ\\\\&":543,"equiv":544,"Ġdx":545,"Ġ\\\\\\":546,")]":547,"dfrac":548,"neq":549,"Ġl":550,"Ġ3":551,";\\;\\":552,"Ġ_":553,"Ġ4":554,"lus":555,"ĠO":556,"sp":557,"}[":558,"11":559,"|^{":560,"/\\":561,"Pi":562,"-(":563,"dag":564,"re":565,"Th":566,"oplus":567,"Theta":568,"Ġ^{":569,"bmatrix":570,"}}.":571,"sta":572,",\\,\\":573,"}),":574,")},":575,"bigl":576,"}_\\":577,"bigr":578,"stack":579,"\\}.":580,"}).":581,"})=":582,"sim":583,"Ġ>":584,"lay":585,"splay":586,"display":587,"Ġ(-":588,"displaystyle":589,"textrm":590,"))\\":591,"],":592,"'_":593,"underline":594,"det":595,"tfrac":596,"^-":597,"subset":598,"\\,\\":599,"loor":600,"floor":601,"ger":602,"dagger":603,"<\\":604,")}.":605,"bra":606,"((":607,"+(":608,"Ġ:":609,"10":610,"Ġ,\\":611,"Ġ$":612,"inf":613,")/":614,"{-":615,"pt":616,"star":617,"_*":618,"sf":619,")&=":620,"):=\\":621,")(\\":622,"',":623,"'\\":624,"minus":625,"_-":626,"].":627,"dy":628,"({\\":629,")}_{":630,"setminus":631,"}}}":632,"{{\\":633,")!":634,":\\":635,"Ġ~":636,"}}^{":637,"sla":638,")})":639,"}&":640,"')":641,"(-\\":642,"^{*":643,"\\\\\\":644,")}}":645,"]=":646,"{|":647,"brace":648,"Ġ^":649,"}{|":650,"\\},":651,"...":652,"Ġdt":653,"'}":654,"substack":655,"}\\,\\":656,"})=\\":657,"}}(\\":658,"})^{":659,"tor":660,"^{(\\":661,"per":662,"}}_{":663,"})^":664,"nt":665,"}\\|":666,"]}":667,"box":668,"}}=":669,"era":670,"):=":671,"erator":672,"sh":673,"textbf":674,"ame":675,"Ġ_{\\":676,"operator":677,"}^*":678,"\\|\\":679,";\\;":680,"name":681,"operatorname":682,"Bigr":683,")}=":684,"}|\\":685,"Ġ}{":686,"perp":687,")}_":688,"_{+":689,"Ġo":690,"if":691,"Ġ[\\":692,"\\}\\":693,"io":694,"Bigl":695,"};":696,"Ġ\\\\&=":697,"dim":698,"vartheta":699,"~\\":700,"_{[":701,"iota":702,"~~~~":703,")&=\\":704,"=-\\":705,"vee":706,",-":707,"\\|^":708,"\\;":709,"{{":710,"hbar":711,"_{-\\":712,"16":713,"^*(":714,"vdots":715,"ik":716,")|^":717,"=-":718,"13":719,"mathsf":720,"Ġ\\}":721,"}}=\\":722,"}(-":723,"22":724,"Ġds":725,"ss":726,"})}":727,"},\\\\":728,"),\\\\":729,"=(":730,"od":731,"not":732,"})(":733,")}=\\":734,"hoo":735,"jk":736,")=(":737,"hbox":738,")}(\\":739,")^\\":740,"}'":741,"}}_":742,"||":743,"^{+":744,"Ġand":745,"for":746,"Ġ\\,\\":747,"bigcup":748,"\\|_":749,"21":750,"\\\\&":751,"Bigg":752,"il":753,",\\\\\\":754,"dz":755,"hoose":756,"choose":757,"Ġ^{\\":758,")).":759,"|}":760,"Re":761,"(|":762,"ch":763,"rfloor":764,"lfloor":765,"*}\\":766,")|\\":767,"on":768,"00":769,"Ġfor":770,")),":771,"}/":772,"{(\\":773,")&":774,"^*\\":775,"Ġ\\\\&\\":776,"slant":777,"Ġ]":778,"and":779,"Ġ&=\\":780,"Ġ\\|\\":781,"}[\\":782,"23":783,"angle":784,"spa":785,"+|":786,"}}{(":787,"}}^":788,"varrho":789,"xx":790,"))=":791,"ps":792,"24":793,"lle":794,"\\,.":795,"|_":796,"_{{\\":797,")\\\\&=":798,"}\\;":799,"ne":800,"_{|":801,"\\}}":802,"rel":803,"bu":804,"'_{":805,"([":806,"|=":807,"xy":808,"sc":809,"triangle":810,")_{\\":811,"top":812,"Ġ}{\\":813,"biggr":814,"\\,,":815,"space":816,"em":817,"biggl":818,"!}":819,"}&=":820,"}}}\\":821,"!\\!\\":822,"}~":823,"colon":824,"sinh":825,"stackrel":826,"...,":827,"dr":828,"Ġdy":829,"}}^{\\":830,"Ġ12":831,"maps":832,"mapsto":833,"Ġ/":834,"cosh":835,"deg":836,"}})":837,"}:=\\":838,"})+":839,"kl":840,"({":841,"less":842,"|_{\\":843,"ip":844,"}}+":845,"mp":846,")=-\\":847,"14":848,"]=\\":849,"}}+\\":850,"tan":851,"underset":852,"lesssim":853,")}{(":854,"tt":855,"long":856,"):":857,"Ġif":858,"}=-\\":859,"\\!":860,"Ġ\\{\\":861,"}.\\":862,"=&":863,"mn":864,").\\":865,"'(\\":866,"}|^":867,"}}\\,":868,")\\\\&":869,"subseteq":870,"Xi":871,"}^{(\\":872,"ii":873,"ba":874,"leqslant":875,"\\\\&\\":876,"}({\\":877,"})_{":878,"du":879,"{(-":880,"}:":881,"tr":882,"]_":883,"}&\\":884,"Ġ)\\":885,"Ġ;":886,"^{[":887,"prox":888,"llet":889,"bullet":890,"}=-":891,"Ġ6":892,"slash":893,"bigoplus":894,"Ġin":895,")^*":896,")\\,\\":897,"approx":898,"che":899,"\\\\&=":900,")=-":901,"check":902,",(":903,"/(":904,"]^":905,">\\":906,"overset":907,"|}\\":908,"})-":909,"arp":910,"|^{\\":911,"Ġ}(":912,"}}-":913,"Ġ\\:":914,"^*_":915,"))^":916,"''(":917,")}+":918,"limsup":919,"32":920,"]_{":921,",...,":922,"{|\\":923,"AB":924,"})^{-":925,")}^":926,")^{-\\":927,"Im":928,"}},\\":929,"ddots":930,"\\|_{\\":931,"'}\\":932,"})\\\\":933,"})}{":934,"Ġ5":935,"_{\\{":936,"~~~":937,"})}\\":938,")\\;":939,"Ġ&&":940,"-|":941,"longrightarrow":942,"scri":943,"script":944,",\\\\&":945,"](":946,"}}}{":947,"dv":948,"ccc":949,"20":950,"back":951,"[(":952,"ic":953,"backslash":954,"all":955,")+(":956,")>":957,"}&=\\":958,"cm":959,"div":960,"}=(":961,"Ġ8":962,"Tr":963,"Ġ\\,.":964,"Ġ*":965,"pty":966,"}^{+":967,"}\\|_{":968,"empty":969,"ker":970,"emptyset":971,"en":972,"arrow":973,"Ġ\\|_{":974,"))=\\":975,"sharp":976,"((\\":977,"}:=":978,")}}\\":979,"rvert":980,"|\\,":981,"mod":982,"15":983,"lvert":984,")\\\\&\\":985,"ol":986,")\\\\&=\\":987,"Ġall":988,"^{-(":989,"&&":990,"}\\,.":991,"Ġ\\}.":992,"underbrace":993,"mm":994,"cd":995,"_{(\\":996,")\\,.":997,";\\;\\;":998,")}-":999,"Ġ{{":1000,"lbrace":1001,"}\\\\\\":1002,"Ġdz":1003,"Ġ\\,,":1004,"'-":1005,".}":1006,"hspace":1007,"textstyle":1008,")}+\\":1009,"ix":1010,")}}{":1011,"pq":1012,"Ġ\\,\\,":1013,"!}\\":1014,");":1015,")},\\":1016,"'}(":1017,"varpi":1018,")_\\":1019,"})^{\\":1020,"=&\\":1021,")\\|_{":1022,"}))":1023,"})+\\":1024,"}_{(":1025,"ac":1026,"]}\\":1027,"ddot":1028,"){\\":1029,"Ġ=&":1030,"Ġ&:=":1031,")}\\,":1032,")\\|":1033,"Ġ({\\":1034,"}\\\\&":1035,"]^{":1036,"ĠTr":1037,",&":1038,"]+":1039,"'+":1040,"|^{-":1041,"}^+":1042,"Ġ{{\\":1043,"mal":1044,"textup":1045,",\\;":1046,",{\\":1047,"Ġ\\!":1048,"bold":1049,")}_{\\":1050,"Ġ\\;\\;":1051,"}+(":1052,"')\\":1053,"}}_{\\":1054,")\\,,":1055,")~":1056,"Ġ}}":1057,"]{":1058,"}{(\\":1059,",\\,\\,\\,\\":1060,"Ġ_\\":1061,"mall":1062,")}\\\\":1063,"Pr":1064,"|,":1065,"=\\,":1066,"^*,":1067,"Ġ:=\\":1068,"nor":1069,"kip":1070,"Ġdr":1071,"Ġ$\\":1072,"meq":1073,"simeq":1074,"'}{":1075,"ijk":1076,"normal":1077,")^{(":1078,"}}-\\":1079,")}^{":1080,"rbrace":1081,")&\\":1082,"cr":1083,"ia":1084,"}\\,,":1085,"bigcap":1086,"}}\\\\":1087,"ref":1088,"Ġ.\\":1089,"}>":1090,"Ġ-(":1091,"cccc":1092,"Upsilon":1093,"small":1094,"})}{\\":1095,"pmod":1096,"))}":1097,"ff":1098,"'=":1099,"ut":1100,"}),\\":1101,"}{|\\":1102,"textnormal":1103,"+(\\":1104,"+|\\":1105,"|.":1106,"^*_{":1107,"\\\\&=\\":1108,"_{|\\":1109,"_+(":1110,"wn":1111,"ji":1112,"^+(":1113,"25":1114,"upsilon":1115,"34":1116,"no":1117,"\\!\\":1118,"}\\\\&\\":1119,"',\\":1120,"*\\":1121,"^*)":1122,"})-\\":1123,"])":1124,"own":1125,"_{{":1126,";\\;\\;\\;\\":1127,"01":1128,"Ġ\\},":1129,"}\\|\\":1130,"}<":1131,"})\\,":1132,"kj":1133,"Ġ),":1134,",[":1135,"}\\\\&=":1136,"sts":1137,"Ġ},":1138,")|^{":1139,"brack":1140,"{-\\":1141,"ing":1142,"liminf":1143,"skip":1144,"&-":1145,"down":1146,"}_{-":1147,"Ġ~~":1148,"),(":1149,"-(\\":1150,"with":1151,")[":1152,"xists":1153,"}^{*":1154,"is":1155,"{[":1156,"]}(":1157,"Ġdu":1158,"}\\{":1159,"Righ":1160,"Ġ^{-":1161,"}^{+\\":1162,"Rightarrow":1163,"|}{":1164,")\\\\\\":1165,"Ġ(-\\":1166,"(|\\":1167,"II":1168,")-(":1169,"bc":1170,"nto":1171,"^*(\\":1172,"cl":1173,"-{":1174,"\\},\\":1175,"phanto":1176,"phantom":1177,"=\\{":1178,"rce":1179,"ie":1180,"=(\\":1181,"Ġis":1182,"))^{":1183,",~":1184,"Ġ((":1185,"cong":1186,"rr":1187,")}-\\":1188,"}$":1189,")=(\\":1190,"|-":1191,"Ġ...":1192,"18":1193,",\\,\\,":1194,"rceil":1195,"};\\":1196,"as":1197,"exists":1198,"}-(":1199,")!}":1200,"{}":1201,"Ġ).":1202,"|(":1203,"downarrow":1204,"ceil":1205,"}|^{":1206,"notin":1207,"lceil":1208,"|)":1209,"),\\\\\\":1210,"oint":1211,"lll":1212,"))-":1213,"}}}{\\":1214,"Ġ=-":1215,")<":1216,"))(":1217,"atop":1218,"_-(":1219,"}'(":1220,"^+_":1221,"^{*}":1222,"imath":1223,"Ġ=-\\":1224,"nk":1225,"uv":1226,"Ġ\\;\\":1227,"bot":1228,"=\\;":1229,"}})\\":1230,"}}|":1231,"33":1232,"leftrightarrow":1233,"'^":1234,"rs":1235,"{$":1236,"iint":1237,"}_+":1238,"Ġon":1239,"Ġth":1240,"},\\\\\\":1241,"Ġ}^{":1242,"^-(":1243,"-{\\":1244,"pre":1245,"Ġ\\\\&=\\":1246,"=}":1247,"|\\\\":1248,"}((":1249,"})(\\":1250,"Ġ10":1251,"sqcup":1252,"~,":1253,"~~~~~~~~":1254,"Ġ+(":1255,"}\\\\&=\\":1256,"|+":1257,"rl":1258,"Ġ}.":1259,"wise":1260,"^+}":1261,"+{\\":1262,"Ġdv":1263,"Ġ{(":1264,"]-":1265,"tanh":1266,"Ġ)^{":1267,"bre":1268,"therwise":1269,"+}":1270,"rcl":1271,"(\\{":1272,"arg":1273,"Ġtr":1274,"+{":1275,"})_":1276,"ĠdW":1277,"={":1278,"Lo":1279,"}\\}":1280,"}]\\":1281,"iz":1282,"mathop":1283,",}":1284,"\\}=":1285,"ax":1286,"dW":1287,"={\\":1288,"}=\\{":1289,"}{{\\":1290,"=~":1291,"Ġ)=":1292,"Ġ^\\":1293,"))+":1294,"Ġ=(":1295,"!\\!":1296,"nm":1297,"Ġ~\\":1298,"31":1299,"[-":1300,"&(":1301,"Ġ)^":1302,"\\|_\\":1303,"abc":1304,"Ġ||":1305,"scriptstyle":1306,",-\\":1307,"lVert":1308,"~~\\":1309,"ct":1310,")\\}":1311,"}^{-\\":1312,"Ġ}_{":1313,"))}{":1314,"],\\":1315,")}|":1316,"\\}}\\":1317,"geqslant":1318,"ere":1319,"}]=":1320,"}^{[":1321,"{}_":1322,"Ġ}=\\":1323,"Ġ7":1324,"}={\\":1325,")}{|":1326,")})\\":1327,"Long":1328,"^*}":1329,"gathered":1330,"')^":1331,"}^-":1332,"}}^{(":1333,"~.":1334,"'_{\\":1335,"Ġ)}":1336,"pmb":1337,"\\{(":1338,"iy":1339,"17":1340,"hskip":1341,"Ġ}}\\":1342,"Ġ\\#":1343,"}(-\\":1344,",\\\\&\\":1345,"Le":1346,"here":1347,"\\})":1348,"nx":1349,"\\}_{":1350,"rVert":1351,"dw":1352,"parrow":1353,"27":1354,"Ġ}=":1355,"XY":1356,"}\\!":1357,"}_{+":1358,")={\\":1359,"|=\\":1360,")=&":1361,"nolimits":1362,"\\,\\,":1363,"^+\\":1364,"cot":1365,"|<":1366,"Ġ9":1367,"|^\\":1368,"_{*":1369,"Ġ\\;,":1370,"})_{\\":1371,"_{,":1372,"48":1373,")}}{\\":1374,"}^{*}":1375,"36":1376,"]_{\\":1377,"}<\\":1378,"^{'":1379,")|_{":1380,"Ġ&+":1381,"Ġ16":1382,"Ġ&=&":1383,"df":1384,")\\|^":1385,"Ġ,\\\\":1386,"})}.":1387,"uparrow":1388,"123":1389,"Ġ<\\":1390,"prec":1391,"breve":1392,"Left":1393,"dX":1394,"Ġ\\;.":1395,"_+\\":1396,"are":1397,"}([":1398,"Ġof":1399,"gg":1400,"||\\":1401,"para":1402,"_*(":1403,"eqq":1404,"ond":1405,"19":1406,"56":1407,"}|_{":1408,"eqref":1409,"[{\\":1410,"lat":1411,"*{":1412,"gh":1413,"]^{\\":1414,"smallmatrix":1415,"}/\\":1416,"llel":1417,"IJ":1418,"(\\|":1419,"parallel":1420,"diam":1421,"Ġ|^":1422,"})|":1423,"Leftrightarrow":1424,")]\\":1425,"wp":1426,")^{|":1427,"}{{":1428,"}={":1429,"coloneqq":1430,"},{\\":1431,"ki":1432,"}=(\\":1433,")/\\":1434,"))+\\":1435,"^-_":1436,"MN":1437,"ni":1438,"Ġ}^{\\":1439,"Ġ(|":1440,"ir":1441,"inter":1442,")))":1443,"boldmath":1444,"Ġ\\\\-":1445,"arc":1446,"})]":1447,"odot":1448,"Ġ-{":1449,"^{(-":1450,"\\;\\":1451,"flat":1452,"},\\,":1453,"supset":1454,"jl":1455,"dg":1456,"bb":1457,"dd":1458,"^{{\\":1459,"ze":1460,"'=\\":1461,";\\\\":1462,"[-\\":1463,"\\,(":1464,"64":1465,"}\\|^":1466,"30":1467,"Ric":1468,"=|":1469,"]+\\":1470,"ox":1471,"){":1472,"))\\,":1473,"gcd":1474,"_-\\":1475,"np":1476,"Ġ)=\\":1477,"-|\\":1478,"\\|^{":1479,"_{+}":1480,":\\,":1481,"-\\!":1482,"{\\|":1483,"dV":1484,")=&\\":1485,"dotsc":1486,"}~\\":1487,"mathtt":1488,"overrightarrow":1489,"bmod":1490,"^-_{":1491,"kx":1492,"pl":1493,"})},":1494,"squ":1495,"]\\\\":1496,"eff":1497,"}_{{\\":1498,"$}":1499,"!(":1500,"Box":1501,"lbrack":1502,"xp":1503,"\\:":1504,"otherwise":1505,"{}^":1506,"Ġ\\{(":1507,",\\,\\,\\,":1508,"dp":1509,"tion":1510,"))^{-":1511,"Ġ\\;=\\;":1512,")\\}.":1513,"tu":1514,"!}{":1515,"xt":1516,"diamond":1517,")!}\\":1518,"|{\\":1519,"Ġwith":1520,"&=(":1521,"kn":1522,"{}_{":1523,"}}},":1524,"}+{\\":1525,"))-\\":1526,"ring":1527,"}}[":1528,"'),":1529,"\\\\-":1530,"\\,,\\":1531,"}}}.":1532,"Ġ}(\\":1533,"varsigma":1534,"ĠRe":1535,"35":1536,"}}\\,\\":1537,"][":1538,")}^{\\":1539,"28":1540,"Ġ\\|_":1541,"Ġ[(":1542,"}],":1543,"ag":1544,"}''":1545,"^{{":1546,"_+^":1547,"square":1548,"Ġor":1549,"jj":1550,"'.":1551,"an":1552,"}:\\":1553,"))}\\":1554,"Ġ&(":1555,"]}{":1556,"]^{-":1557,"|>":1558,"xrightarrow":1559,"}\\}.":1560,"tit":1561,"Ġ\\,=\\,":1562,"'}}":1563,",+":1564,"iu":1565,"|+|":1566,"kern":1567,"Ġ\\\\&+":1568,")<\\":1569,"dq":1570,"||_{":1571,"^+,":1572,"_{-}":1573,"Id":1574,")\\|_":1575,"\\;.":1576,"26":1577,")={":1578,")=\\{":1579,"hdots":1580,"]\\,":1581,"^-\\":1582,"](\\":1583,"\\}=\\":1584,"yy":1585,"Ġ^{(":1586,"^+_{":1587,"tx":1588,"}}^{-":1589,"|\\,\\":1590,"mathring":1591,"dk":1592,"ih":1593,"Ġ\\;\\;\\":1594,"_{\\{\\":1595,"40":1596,"=[":1597,"+\\|":1598,"ven":1599,"Du":1600,"lar":1601,"Ġ{{{\\":1602,"\\},\\\\":1603,"))\\\\":1604,"Biggr":1605,"),\\,":1606,"^{*}\\":1607,")$":1608,"ym":1609,":=\\{":1610,"boxtimes":1611,"'},":1612,"yz":1613,"}\\,\\,":1614,"Biggl":1615,"lk":1616,"))}{\\":1617,"]},":1618,"gn":1619,"size":1620,"xz":1621,"[(\\":1622,"Ġ[-":1623,"'|":1624,"'}^":1625,"fg":1626,"textit":1627,"([\\":1628,",{":1629,"_*\\":1630,"aq":1631,"Ax":1632,"cu":1633,"jmath":1634,"triangleq":1635,"}))\\":1636,"dB":1637,")=(-":1638,"|}{\\":1639,"Ġ\\|^":1640,"').":1641,"}].":1642,"prop":1643,")].":1644,"}\\|_":1645,"|^{-\\":1646,",~~":1647,"{}{":1648,"Ġ\\,\\,\\,":1649,"^{+\\":1650,"}(|":1651,"},&":1652,"}^*\\":1653,"varkappa":1654,")}_\\":1655,"}_{[":1656,"Ġ&-":1657,"Ġcon":1658,"'})":1659,"lef":1660,"Ġ=:":1661,",\\{":1662,"Ġ-{\\":1663,"}\\;\\":1664,")),\\":1665,"Ġ\\\\(":1666,"iff":1667,"pr":1668,"Ġ\\;\\;\\;":1669,"}}}}":1670,"44":1671,"}}).":1672,"hd":1673,"\\|(":1674,"),&":1675,"\\,|\\,":1676,")],":1677,",+\\":1678,"diag":1679,"}^*(":1680,"')}":1681,"=\\,\\":1682,"}-{\\":1683,"vol":1684,"&-\\":1685,"96":1686,"dS":1687,"})&=":1688,"}\\!\\":1689,"con":1690,"}}|\\":1691,"}+{":1692,"Ġdiv":1693,",(\\":1694,"''_":1695,"+(-":1696,"})}(":1697,"}}{|":1698,")]=":1699,",...":1700,"qx":1701,"}\\},":1702,"}]_{":1703,"leftarrow":1704,"|_\\":1705,"\\,{\\":1706,"Ġ'":1707,"}}}(":1708,"})=(":1709,"Bbb":1710,"}}^\\":1711,"scriptscriptstyle":1712,")'":1713,"^{|":1714,"^{*}(":1715,"45":1716,"ijkl":1717,"propto":1718,"}\\{\\":1719,"iT":1720,"Ġthe":1721,";.":1722,"Ġ\\\\=":1723,"^*-":1724,"hline":1725,"where":1726,"Ġ{}":1727,"\\;,":1728,"+\\!":1729,"^+}\\":1730,"),\\\\&":1731,"}\\,(":1732,"'}(\\":1733,"^{\\,":1734,"')=":1735,"Df":1736,"!\\!\\!\\!\\":1737,"]{\\":1738,"))_{":1739,"AA":1740,"ny":1741,"Ġdet":1742,"Ġ+{\\":1743,"dm":1744,"nn":1745,"},\\\\&":1746,")_+":1747,"):\\":1748,"ib":1749,"Ġab":1750,"thin":1751,"thinspace":1752,")}},":1753,"}+(\\":1754,"'_\\":1755,")[\\":1756,"]-\\":1757,"Ġ}^":1758,"xu":1759,"|+\\":1760,"<-":1761,"\\#":1762,"iq":1763,"||^":1764,",\\;\\;":1765,"Ġ:\\":1766,"];":1767,"_{[\\":1768,"bd":1769,"}{\\|":1770,"ies":1771,"kr":1772,"Ġ~=~":1773,".}\\":1774,"Ġ={\\":1775,"ĠIm":1776,")!}{":1777,":\\:\\":1778,"+}\\":1779,")|=":1780,"SU":1781,")!(":1782,"^{*}_{":1783,"Ġ\\\\=&":1784,"}}{(\\":1785,")&=(":1786,"]}{\\":1787,"nq":1788,"}~~":1789,")+(\\":1790,"lm":1791,"Ġ~~~~":1792,"Ġ~~~":1793,"}*":1794,"=}\\":1795,"Ġexp":1796,"_+}":1797,"100":1798,")}}.":1799,"}\\;\\;":1800,"})).":1801,"!}.":1802,"\\}^{":1803,"}}\\|":1804,"60":1805,"na":1806,"')=\\":1807,"out":1808,"^{-(\\":1809,"$\\":1810,",&\\":1811,"Ġ})":1812,"}...":1813,"texttt":1814,"-}":1815,"dA":1816,"}{}^{":1817,"Ġ}+\\":1818,"he":1819,"''\\":1820,"Ġ=\\,":1821,"Ġid":1822,")]^":1823,"Longleftrightarrow":1824,"}{}_{":1825,"^{+}":1826,")}).":1827,"kk":1828,"}-{":1829,")}),":1830,"TM":1831,"Ġ}+":1832,"}}),":1833,"Longrightarrow":1834,"$,":1835,"43":1836,"|}{|":1837,"iny":1838,"})^\\":1839,"^*)\\":1840,"mk":1841,"px":1842,"def":1843,"_{<":1844,"Ġ({":1845,"_+,":1846,"])\\":1847,"'+\\":1848,")}{(\\":1849,"*}(":1850,"Tx":1851,"tiny":1852,")&:=\\":1853,"))|":1854,"Ġ||\\":1855,"Ġco":1856,",\\,\\,\\":1857,")!}{(":1858,"]=[":1859,"'}{\\":1860,"ak":1861,"^*_\\":1862,"uu":1863,"Ġ;\\":1864,"Ġ\\>":1865,")\\},":1866,"Ġ14":1867,"impl":1868,"dxdy":1869,"}}(-":1870,"},...,":1871,"low":1872,"},\\;":1873,"}}{{\\":1874,"te":1875,"Ġ=&\\":1876,"'-\\":1877,"intertext":1878,"))(\\":1879,"Ġxy":1880,"implies":1881,"km":1882,"Ġeven":1883,"arctan":1884,"50":1885,"],\\\\":1886,")\\|_{\\":1887,"_{-}(":1888,")}^{-":1889,"Ġ}}{":1890,"\\!-\\!":1891,"enspace":1892,"37":1893,"|)\\":1894,"_{_{":1895,"mathit":1896,"}]=\\":1897,"xq":1898,"CD":1899,"kp":1900,"Ġ},\\":1901,"Ġeff":1902,"\\}^":1903,"ke":1904,"Ġ|_{":1905,"^{*,":1906,"Ġodd":1907,"\\&\\":1908,"}=&":1909,"\\}\\\\":1910,")\\;.":1911,"^*+":1912,")/(":1913,"zz":1914,")}[":1915,"99":1916,"ms":1917,"Ġ}\\,":1918,"}\\;.":1919,"kt":1920,"mi":1921,"Ġ+{":1922,"^*=":1923,"}\\|_{\\":1924,"}/{":1925,",|":1926,"Ġso":1927,"{$\\":1928,"]}.":1929,"SO":1930,"jx":1931,"{}\\":1932,"bigwedge":1933,":=(":1934,"ka":1935,"}'\\":1936,"\\{-\\":1937,"Au":1938,"rank":1939,"au":1940,"iA":1941,"ly":1942,".\\\\":1943,"Ġ)^{-":1944,"zq":1945,"Ġ-(\\":1946,"ĠdV":1947,"^*}\\":1948,"xxx":1949,"}^{{\\":1950,")})=":1951,")(-":1952,")|.":1953,")^*\\":1954,"Ti":1955,"cfrac":1956,")}}(":1957,"]).":1958,"rad":1959,"$}.":1960,"+[":1961,"BC":1962,"}})=":1963,"}):=\\":1964,"Ġdw":1965,"}||":1966,"!\\!\\!":1967,"}((\\":1968,"=\\|":1969,"}})^{":1970,"'))":1971,"})&=\\":1972,"^{+}(":1973,"]&":1974,"nc":1975,"Ġ={":1976,"}_*":1977,"Ġthat":1978,"ts":1979,"llll":1980,"coth":1981,"}{}^":1982,"Ġ32":1983,"_{+}(":1984,"#\\":1985,"aa":1986,"Ġ}_":1987,"Ġ}-":1988,"_{}":1989,")}|\\":1990,"ĠdS":1991,"&=-\\":1992,")\\;,":1993,"by":1994,"|}.":1995,"+\\,":1996,"Ġ,\\\\\\":1997,"iag":1998,"Ad":1999,"Ġ([":2000,"}_-":2001,"^*_{\\":2002,"Ġre":2003,"Ġ)(":2004,"'|^":2005,"tf":2006,"succ":2007,"bigsqcup":2008,"}\\;,":2009,"|\\\\&\\":2010,"Tilde":2011,"NR":2012,"}\\}\\":2013,"\\,=\\,":2014,"''_{":2015,"|},":2016,"Ġas":2017,"^{(+":2018,"Ġ\\|_{\\":2019,")&:=":2020,"57":2021,"dP":2022,"000":2023,";\\,":2024,"&=&":2025,")|}":2026,"''(\\":2027,"emph":2028,"AX":2029,"\\}}(":2030,")\\|\\":2031,"$.}":2032,"[{":2033,"sgn":2034,"))^{\\":2035,"nb":2036,"nf":2037,"')^{-":2038,"]}_{":2039,"dh":2040,"dcases":2041,");\\":2042,"_{_":2043,",\\;\\":2044,"},~":2045,"})}{(":2046,"}~,":2047,"))\\\\&=":2048,"tA":2049,"}),\\\\":2050,"ae":2051,"}_{\\{":2052,"42":2053,"po":2054,"Ġ=(\\":2055,"}[(":2056,"bx":2057,"Ġ((\\":2058,"ute":2059,"02":2060,"Ġ\\!\\":2061,"}\\:":2062,"!}{(":2063,",\\;\\;\\":2064,"\\{-":2065,"}'_":2066,"^+)":2067,"}~.":2068,"jn":2069,"Ġ~,":2070,"Ġ~.":2071,"})\\\\&":2072,"]]":2073,"jlim":2074,"tabu":2075,"}{=}":2076,"_*^":2077,"^{+}_{":2078,"tabular":2079,"tz":2080,"arpo":2081,"]+[":2082,",..":2083,"be":2084,"Ġ&&\\":2085,"])=":2086,"Ġ}{(":2087,"})),":2088,"),\\;":2089,"{\\{":2090,"^*.":2091,")\\\\=&":2092,"acute":2093,"CS":2094,"^{|\\":2095,"ral":2096,")\\!":2097,"Ġwhere":2098,"}|_{\\":2099,"-[":2100,"dash":2101,"^+(\\":2102,"''}":2103,"&:=":2104,"|(\\":2105,"Ġdf":2106,"))&=":2107,")|}{":2108,")~.":2109,"&:=\\":2110,"vv":2111,"ĠdB":2112,",\\,\\,\\,\\,":2113,"||_":2114,"ru":2115,"{.":2116,"ccccc":2117,"\\;\\;":2118,"}({":2119,"Ġad":2120,"Ġ&=(":2121,"pp":2122,"}).\\":2123,"loc":2124,"}(\\{":2125,"{{{":2126,"\\\\&+\\":2127,"]}^{":2128,"very":2129,"}}{{":2130,"!},":2131,"Ġ)}\\":2132,")})^":2133,"\\\\=&":2134,"}+|":2135,"80":2136,";,":2137,"triangleright":2138,"'}^{":2139,"rhd":2140,")-(\\":2141,")\\\\&+\\":2142,"'}.":2143,"cz":2144,"je":2145,"kf":2146,"bigotimes":2147,"}|}":2148,"nmid":2149,"Ġsu":2150,")!\\":2151,"CP":2152,"]_\\":2153,"}){\\":2154,"\\\\&+":2155,"Ġsome":2156,"ju":2157,"}=(-":2158,"}|=":2159,"supp":2160,"_-^":2161,"ikx":2162,"})\\\\&=":2163,"67":2164,"Ġ)_{":2165,"\\}}|":2166,"'}_{":2167,"tv":2168,"|<\\":2169,"}}_\\":2170,"})+(":2171,"=(-":2172,"^*=\\":2173,")}\\,\\":2174,"_*(\\":2175,"}^{+}(":2176,",~\\":2177,"41":2178,"},{":2179,"}=&\\":2180,"_+(\\":2181,"rtimes":2182,"}}&":2183,"Ġ(|\\":2184,"Ġ|{\\":2185,"jm":2186,"ns":2187,"Ġ13":2188,"bigvee":2189,"Ġ\\\\-\\":2190,"Ġto":2191,"textsf":2192,"ue":2193,"yx":2194,"Ġevery":2195,"}^{+}\\":2196,"29":2197,"}](":2198,"Ġ&\\\\":2199,"^{-}(":2200,"scriptsize":2201,"ai":2202,"})|\\":2203,"}\\,{\\":2204,")*":2205,"\\&":2206,"]=-":2207,"{,":2208,"land":2209,"}_{(\\":2210,"}\\,,\\":2211,"Ġotherwise":2212,"]})":2213,"},-":2214,"}^{-}(":2215,"NC":2216,"Var":2217,"Ġ\\|(":2218,"lt":2219,"}-(\\":2220,")}(-":2221,"dF":2222,"ĠdX":2223,"_-,":2224,"_{+}\\":2225,"nz":2226,"ĠRic":2227,"Sp":2228,"}^{*}\\":2229,"Ġ&-\\":2230,")}&=\\":2231,"^{-}":2232,"gen":2233,"\\}.\\":2234,"}'(\\":2235,"~~~~~~~~~~~~~~~~":2236,"vmatrix":2237,"})}=":2238,"Ġdi":2239,"Ġ}-\\":2240,"[[":2241,"}^{}":2242,":\\:":2243,"qt":2244,"dxdt":2245,"$},":2246,"75":2247,"}{[":2248,"\\!\\!":2249,"]&=":2250,"az":2251,"\\|=":2252,"Ġ)+":2253,"Ġch":2254,"mo":2255,"=\\{\\":2256,"Ġ|(":2257,"'',":2258,"longmapsto":2259,")~,":2260,"$,}":2261,"49":2262,"hphantom":2263,"rk":2264,"|-\\":2265,"Ġdm":2266,"BA":2267,")=[":2268,"\\\\(":2269,"\\},\\{":2270,"Ġdiag":2271,"Ġ11":2272,"Ġmod":2273,"^-,":2274,"'}=":2275,"TX":2276,")}]":2277,"...\\":2278,"],[":2279,"dT":2280,"nj":2281,"sign":2282,"(\\|\\":2283,"+\\|\\":2284,"Ġ24":2285,")|_":2286,"ec":2287,"Ġ]\\":2288,"Ġ\\,\\,\\":2289,"^*}(":2290,"_{*}":2291,"Ġ=\\{":2292,")|_{\\":2293,"ree":2294,"):=(":2295,"Ġconst":2296,",|\\":2297,"]\\\\&=":2298,"nh":2299,"}}.\\":2300,"}}=-\\":2301,"88":2302,"bq":2303,"cx":2304,"ess":2305,"und":2306,"}{-":2307,"Ġ}_{\\":2308,"_{-}\\":2309,"UV":2310,"Ġdp":2311,"Ġ)^{\\":2312,")}\\\\&\\":2313,"iH":2314,"js":2315,"lr":2316,"},(":2317,"Ġdg":2318,"itH":2319,"dist":2320,"preceq":2321,"Ġ\\}\\":2322,"}|.":2323,"NS":2324,"dY":2325,"ext":2326,"_{+,":2327,"}}]":2328,"asy":2329,"curl":2330,"}}:=\\":2331,"}|}\\":2332,")]=\\":2333,"{-}":2334,"/(\\":2335,"\\}+\\":2336,"dle":2337,"})}=\\":2338,"55":2339,"^{-|":2340,"\\{|":2341,"}]}":2342,"^-}":2343,"const":2344,")_{(":2345,"].\\":2346,"ev":2347,"xv":2348,"}*\\":2349,"_{(-":2350,"})^*":2351,"ĠdA":2352,",\\,\\,\\,\\,\\,\\,\\,\\":2353,"ST":2354,"ku":2355,"^{-{":2356,"bigtriangle":2357,"atu":2358,")^+":2359,"Ġany":2360,",\\\\(":2361,"-(-":2362,"AC":2363,"|~":2364,"thing":2365,"}))=":2366,"~~~\\":2367,")\\\\=&\\":2368,".,":2369,"vdash":2370,"middle":2371,".\\\\\\":2372,"qr":2373,"Ġ!":2374,"dotsb":2375,"^*,\\":2376,"_{\\|":2377,"-\\,":2378,"Ġdk":2379,")=|":2380,"})\\,\\":2381,"^-)":2382,"+~":2383,"dn":2384,"ef":2385,"plus":2386,"tq":2387,"~}":2388,"Ġ&{\\":2389,")}:=\\":2390,"})=-\\":2391,"span":2392,"90":2393,"cb":2394,"(\\{\\":2395,"^{\\{":2396,"varno":2397,"&=-":2398,")+{\\":2399,"'')":2400,"~~~,":2401,"varnothing":2402,"\\}_":2403,"tw":2404,"Ġ\\!\\!":2405,"Ġdim":2406,"|\\{":2407,")|=\\":2408,"Res":2409,"'^{":2410,"Ġ&<":2411,"$}\\":2412,"&\\\\":2413,">=\\":2414,"xf":2415,"-\\|":2416,"^{\\#":2417,"mkern":2418,"rx":2419,"Ġ}^{(":2420,"_{>":2421,"}}[\\":2422,"})/":2423,")^{-(":2424,"}^{|":2425,"Ġ{-":2426,"Ġ_{-":2427,"|=|":2428,"DF":2429,"]^\\":2430,"dE":2431,"dR":2432,")};":2433,"]}(\\":2434,"ja":2435,"|-|":2436,"}})=\\":2437,"Ġdq":2438,"dotsm":2439,"}}\\\\&\\":2440,"av":2441,"mx":2442,"Ġ))":2443,"72":2444,"]}=":2445,"ks":2446,"|}(":2447,"}):=":2448,"\\,|\\,\\":2449,"_{[-":2450,")\\\\&+":2451,")>\\":2452,"=~\\":2453,"kd":2454,"pk":2455,"sr":2456,"Ġ&+\\":2457,";\\;\\;\\;":2458,"boxplus":2459,"}^{+}":2460,"gx":2461,"ner":2462,"}>\\":2463,"Ġ)}{":2464,"Tf":2465,"YM":2466,"gf":2467,"lcl":2468,"sion":2469,"})&":2470,")}&":2471,"searrow":2472,")}\\,.":2473,"Ġ...,":2474,"intercal":2475,"')^{":2476,"\\}\\,":2477,"subar":2478,"})=-":2479,"subarray":2480,"sx":2481,"Ġ+(\\":2482,"ĠAx":2483,"';":2484,"']":2485,"|)^{":2486,"}^{{":2487,"ĠSO":2488,"atural":2489,"db":2490,"circle":2491,")|\\,":2492,"~~~.":2493,"pn":2494,"tbinom":2495,"}})^":2496,"}^+\\":2497,"}^-(":2498,"\\,{":2499,"\\|.":2500,"47":2501,"Vol":2502,"{\\|\\":2503,"}^+(":2504,"))^\\":2505,")-{\\":2506,")|,":2507,")&=-\\":2508,"^{++":2509,"\\})\\":2510,")}&=":2511,"overbrace":2512,"_+)":2513,":\\;":2514,"Ġsuch":2515,"'}=\\":2516,"}',":2517,")^{|\\":2518,"^-(\\":2519,"})\\\\&\\":2520,"CC":2521,"jp":2522,",\\;\\;\\;":2523,"doteq":2524,"Ġ15":2525,"}+\\|":2526,"supseteq":2527,"KL":2528,"TA":2529,"ominus":2530,"}):":2531,")}&\\":2532,"))_":2533,"Ġ{}_":2534,")}{|\\":2535,"''+":2536,"\\!\\!\\":2537,"]}}":2538,"ty":2539,"\\\\=&\\":2540,")))\\":2541,"},\\,\\":2542,"\\{(\\":2543,"qz":2544,"}};":2545,"meds":2546,"}_{-\\":2547,"^\\#":2548,"Ġ~~\\":2549,"')(":2550,"}}}=\\":2551,"}})(":2552,"),~":2553,"cy":2554,"mb":2555,"natural":2556,"Ġ/\\":2557,"tharpo":2558,"Ġ18":2559,"Ġ[-\\":2560,"),\\\\&\\":2561,"\\!+\\!":2562,"}}\\\\&":2563,"52":2564,"Ker":2565,"hen":2566,"qp":2567,"vu":2568,"{[\\":2569,"|/":2570,"\\,(\\":2571,")|}{|":2572,"!}{\\":2573,"}}\\;":2574,"^*)^":2575,"ĠVol":2576,"'/":2577,"Ġ\\}}":2578,"}}|^":2579,"Ġ\\,{\\":2580,")})=\\":2581,">=":2582,"128":2583,"asymp":2584,"((-":2585,"li":2586,"}}/":2587,"Ġ20":2588,"ĠId":2589,"_*,":2590,"hook":2591,"wt":2592,"Ġmax":2593,"}}}{(":2594,"}}{=}":2595,"}]_":2596,"54":2597,"kq":2598,"lj":2599,"ls":2600,"}\\,\\,\\":2601,"\\\\-\\":2602,"'}_":2603,"66":2604,"]:":2605,"kz":2606,"nr":2607,"ux":2608,"Ġst":2609,")}}{(":2610,"|\\;":2611,"))&=\\":2612,"\\|=\\":2613,"_-(\\":2614,"^{*}(\\":2615,"&{\\":2616,"}\\|^{":2617,")\\}\\":2618,"varGamma":2619,"endaligned":2620,")](":2621,"|&\\":2622,"Ġdxdt":2623,")~\\":2624,"38":2625,"Co":2626,"]&\\":2627,"ay":2628,"cq":2629,"tg":2630,"{}_\\":2631,")\\;\\":2632,"ĠSU":2633,";\\;\\;\\":2634,"hookrightarrow":2635,"Lu":2636,"reg":2637,"~{\\":2638,"+\\,\\":2639,"Ġ}}{\\":2640,"Ġmin":2641,"}^{(-":2642,"}=[":2643,"ord":2644,"Ġ>\\":2645,"},\\\\&\\":2646,"HS":2647,"^{}":2648,"}}&=\\":2649,"}^{\\,":2650,"_-)":2651,"}^{*}(":2652,"Hom":2653,"Tu":2654,"bt":2655,"jb":2656,"});":2657,"Ġvol":2658,"Ġsin":2659,"^+_{\\":2660,"_{+}^{":2661,"112":2662,"iw":2663,"tL":2664,"~=~":2665,"}\\}_{":2666,"}}}=":2667,"_-}":2668,"=|\\":2669,"ale":2670,"gtr":2671,"so":2672,"Ġ)\\,":2673,"{\\,":2674,"}}&=":2675,")}^\\":2676,"res":2677,"bigtriangleup":2678,"')-":2679,",*":2680,"|,\\":2681,")}\\|":2682,"dc":2683,"jr":2684,"zx":2685,"}')":2686,"^{-}_{":2687,")]^{":2688,"!)^":2689,"GL":2690,"sb":2691,"{}_{\\":2692,"}(|\\":2693,"=\\!":2694,")}.\\":2695,"),&\\":2696,"}|^{\\":2697,"}}({\\":2698,")}=-\\":2699,")\\\\&=(":2700,")}\\\\&=":2701,"*}{\\":2702,"rbrack":2703,"}}\\|\\":2704,")&=-":2705,"78":2706,"))]":2707,"Ġ{}^":2708,"~~~~\\":2709,"note":2710,"&&\\":2711,"]}}(":2712,"rightharpo":2713,")\\:":2714,")},\\\\":2715,"Ġ\\\\{\\":2716,")((":2717,"...+":2718,";\\;\\;\\;\\;\\;\\;\\;\\":2719,"iS":2720,"onu":2721,"Ġ,\\\\&":2722,"_{\\,":2723,")\\,,\\":2724,")||":2725,"onup":2726,"BR":2727,"kh":2728,"{_":2729,"Ġ})\\":2730,"III":2731,",...,\\":2732,"Ġdist":2733,"')+":2734,"68":2735,"_*}":2736,"et":2737,"iX":2738,"tX":2739,"}},\\\\":2740,"Ġdh":2741,"),(\\":2742,"Ġ|^{":2743,"^{*,\\":2744,"}^*_":2745,"xe":2746,"Ġ],":2747,"}{}{":2748,"Ġdd":2749,"\\{{\\":2750,"Ġ)+\\":2751,"BS":2752,"|+|\\":2753,"(\\,":2754,"abcd":2755,"^{+}\\":2756,"})\\\\&=\\":2757,")}}}":2758,"]\\,.":2759,"bs":2760,"|)^":2761,"Ġ)-":2762,"}{*{":2763,"...,\\":2764,"0000":2765,"JX":2766,"vw":2767,"{}^{":2768,"_{}(":2769,"=\\;\\":2770,"odd":2771,"enskip":2772,">_{":2773,"]),":2774,"af":2775,"ky":2776,"mc":2777,"Ġat":2778,"Ġse":2779,"}})}":2780,"otnote":2781,"Ġit":2782,"textsc":2783,"footnote":2784,"\\}}|\\":2785,"58":2786,"fF":2787,"}}}(\\":2788,")}:=":2789,"}||_{":2790,"Li":2791,"}}}}\\":2792,")),\\\\":2793,"1234":2794,"}&=(":2795,"genfrac":2796,"iR":2797,"kb":2798,"{.}":2799,"Ġ,\\,":2800,"}}&\\":2801,"succeq":2802,"medskip":2803,"]&=\\":2804,"Ġint":2805,"Ġ].":2806,"^{-{\\":2807,"rightharpoonup":2808,"Ġma":2809,"Ġ}}}":2810,")}:":2811,"^*}{":2812,"]=-\\":2813,"||_{\\":2814,"}:=\\{":2815,"}}\\,.":2816,"'|\\":2817,"jf":2818,"vphantom":2819,"^{[\\":2820,"})}(\\":2821,"Ġ\\;\\;\\;\\;":2822,"SI":2823,"hk":2824,"iD":2825,"ĠII":2826,"=-(":2827,"\\}|":2828,"zw":2829,"-\\!\\":2830,"hom":2831,"Ġ{|":2832,"Ġsym":2833,")_*":2834,"new":2835,"<+\\":2836,"iB":2837,"rd":2838,")}/":2839,"rob":2840,"}^{-}\\":2841,"AD":2842,"\\}+":2843,"}))=\\":2844,")})^{-":2845,"~~~~~":2846,"break":2847,"PQ":2848,"\\}\\,.":2849,"hf":2850,"Ġln":2851,"^*),":2852,"}||\\":2853,"_+-":2854,"]}=\\":2855,"ys":2856,"dat":2857,"},[":2858,"Ġ\\,|\\,":2859,"prescript":2860,"dZ":2861,"mt":2862,"120":2863,"Ġde":2864,"})_\\":2865,"Ġsign":2866,"projlim":2867,"_+}\\":2868,"):=\\{":2869,"'}^{(":2870,"))}.":2871,"))=(":2872,"MA":2873,"TB":2874,"sw":2875,"Ġ{(\\":2876,"}\\\\=&\\":2877,"''}{":2878,"]-[":2879,"'}+":2880,")'(":2881,";\\\\\\":2882,"\\,\\,\\":2883,"])=\\":2884,"Ġ\\:\\":2885,"'''(":2886,")}}=":2887,"+}(":2888,";-":2889,"Af":2890,"ction":2891,"mj":2892,"tive":2893,"varprojlim":2894,"Ġan":2895,")}\\\\&":2896,";\\;\\;\\;\\;\\;":2897,"'}}\\":2898,",[\\":2899,"]|":2900,"edat":2901,"lse":2902,"version":2903,"Ġ\\,(":2904,"}}{|\\":2905,"alignedat":2906,"^{*}}":2907,")}^{(":2908,"[|":2909,"|}}":2910,"race":2911,"})|^":2912,"~~,":2913,")]_{":2914,"^-}\\":2915,"})\\,.":2916,"gtrsim":2917,"'^{-":2918,"'\\,":2919,"BH":2920,"jy":2921,"mathversion":2922,"Ġik":2923,"}=\\{\\":2924,"Ġ}|":2925,"}\\,=\\,":2926,"_{-,":2927,"Ġ}\\;":2928,")]_":2929,"70":2930,"_{_{\\":2931,"^*)=":2932,"\\|,":2933,"coprod":2934,"_*)":2935,"mult":2936,"ĠSp":2937,"}\\\\=&":2938,"|\\\\&":2939,"TV":2940,"dM":2941,"dl":2942,"mr":2943,"sl":2944,"ABC":2945,",}\\":2946,"<|":2947,"dH":2948,"dbinom":2949,"hg":2950,"iJ":2951,"}}:=":2952,"Ġ\\,,\\":2953,"})=(\\":2954,"39":2955,"dL":2956,"jv":2957,"nP":2958,"neg":2959,"pe":2960,"Ġ^{-\\":2961,"_{,\\":2962,"})-(":2963,")}_{(":2964,"varPhi":2965,"Ġ[[":2966,"{(}\\":2967,"^+,\\":2968,")})^{":2969,"triangleleft":2970,"=:":2971,"ml":2972,"sym":2973,"}})^{-":2974,"}_{{":2975,"}_{|":2976,"Ġ\\\\&+\\":2977,"}}\\,,":2978,"large":2979,"))},":2980,"hx":2981,"ĠAB":2982,"Ġ&=-\\":2983,"pan":2984,"stant":2985,")&=&":2986,"Dw":2987,"}}}^{":2988,"Ġ\\,&":2989,"}}^{[":2990,"}'_{":2991,"&&&&":2992,",..,":2993,"footnotesize":2994,"#\\{":2995,"76":2996,"CM":2997,"{{{\\":2998,"^*+\\":2999,"\\,|":3000,"\\,=\\,\\":3001,"ĠLi":3002,"),\\,\\,":3003,"Ġ|\\{":3004,"_{+}}":3005,"AP":3006,"|).":3007,"}{}_{\\":3008,"}}~":3009,"Ġ-|":3010,"^*-\\":3011,"ĠCh":3012,"Ġ[(\\":3013,"}\\,(\\":3014,"')|":3015,"=[\\":3016,"BD":3017,"]}_":3018,"es":3019,"gra":3020,"jh":3021,"})}}":3022,"}{\\|\\":3023,"orner":3024,"}''(":3025,"![":3026,"mq":3027,"=\\{(":3028,"})^{-\\":3029,"}^-\\":3030,"Ġax":3031,"\\,.\\":3032,"}|_":3033,"real":3034,"iI":3035,"ub":3036,"xw":3037,"|>\\":3038,"erms":3039,"lor":3040,"}}\\\\\\":3041,"Ġ&\\;":3042,",\\,\\,\\,\\,\\,":3043,"'}^{\\":3044,"59":3045,"jt":3046,"sa":3047,"xg":3048,"Ġ&=-":3049,"rcorner":3050,"})\\\\\\":3051,"....":3052,"}/(":3053,"}&=&":3054,"')}\\":3055,"Ġda":3056,"allow":3057,"Ġ+|":3058,"}(\\|":3059,"Ġ{}_{":3060,"Ġ}}{{":3061,"&=|":3062,"]\\!":3063,"}]+":3064,")}\\\\&=\\":3065,"aleph":3066,",~~~":3067,"PS":3068,"md":3069,"})}^{":3070,"Ġsgn":3071,")|}\\":3072,"underbar":3073,")]^{-":3074,"Ġ:\\,":3075,"|=|\\":3076,"&\\|":3077,"))\\\\&":3078,"lrcorner":3079,"smi":3080,"{}^\\":3081,"Ġ=(-":3082,"})&\\":3083,"Ġuv":3084,"}=:":3085,"Ġ(\\{":3086,"\\,}":3087,"ite":3088,"''+\\":3089,")}=(":3090,"smile":3091,"AY":3092,"rf":3093,"Ġ),\\":3094,"^{^{":3095,"}{(-":3096,"})>":3097,"},-\\":3098,"Ġnt":3099,"\\,,\\\\":3100,"}^{-}":3101,"}])":3102,"Ġ\\\\&-":3103,")}}=\\":3104,"}}=-":3105,")}\\,,":3106,"46":3107,"Bu":3108,"gr":3109,"}}}_{":3110,"+\\!\\":3111,")}[\\":3112,"},&\\":3113,"Ġ)}{\\":3114,")|&\\":3115,"...)":3116,"-}\\":3117,"BB":3118,"LC":3119,"uz":3120,"Ġ\\,\\,\\,\\,":3121,"Ġ[{\\":3122,"'},\\":3123,"-}(":3124,"TP":3125,"iF":3126,"tp":3127,"^{'}":3128,"}([\\":3129,"}}<":3130,"Ġby":3131,"''=":3132,"smallsetminus":3133,"&(\\":3134,";{\\":3135,"TE":3136,"\\}=\\{":3137,"zf":3138,"Ġ!}":3139,"}}:":3140,"sec":3141,"\\{|\\":3142,")]+":3143,"}^*(\\":3144,"})\\,,":3145,"+}_{":3146,"@{\\":3147,"}{}_":3148,"}|(":3149,")\\,=\\,":3150,"^{**":3151,"=-{":3152,"'})\\":3153,"Dv":3154,"nT":3155,"sd":3156,"sz":3157,"}}<\\":3158,"Ġ&\\,":3159,"Ġ|_{\\":3160,"ity":3161,"nearrow":3162,",~~\\":3163,"[\\,":3164,"bz":3165,"ltimes":3166,"nR":3167,"|}^":3168,"}!":3169,"ngth":3170,"&=(\\":3171,"Ġcm":3172,")+(-":3173,")\\,{\\":3174,"/|":3175,"qq":3176,"rp":3177,"xH":3178,"yu":3179,"Ġdeg":3180,"}{}^{\\":3181,")}\\|_{":3182,"Ġ_{{\\":3183,"(-(":3184,"^+_\\":3185,")]^{\\":3186,"111":3187,"SS":3188,"aw":3189,")}>":3190,")^{[":3191,")^{(\\":3192,"}-|":3193,")(|":3194,"&=\\{":3195,"CF":3196,")\\,\\,":3197,")|^{\\":3198,"$-":3199,";}":3200,"]}^":3201,"cn":3202,"jq":3203,"rn":3204,"^{}_{":3205,"}{-\\":3206,"length":3207,"lap":3208,")=-(":3209,"^+.":3210,"/{\\":3211,"05":3212,"98":3213,"]\\,,":3214,"lu":3215,"tot":3216,"ind":3217,"Ġ,&":3218,"}=\\|":3219,"Ġreg":3220,"})\\|_{":3221,"{(}":3222,")|=|":3223,"_{-}^{":3224,"}}=(":3225,"}}\\\\&=\\":3226,":~":3227,"\\}},":3228,"\\}).":3229,"qc":3230,"zt":3231,"{}^{\\":3232,"Ġlog":3233,"}{=}\\":3234,"^*).":3235,"_+^{-":3236,"|,|":3237,"))\\\\&=\\":3238,"nl":3239,"nv":3240,"pc":3241,"injlim":3242,"varinjlim":3243,":\\,\\":3244,"Bar":3245,"MS":3246,"PD":3247,"]:=":3248,"hu":3249,"kR":3250,"lhd":3251,"rj":3252,"^{''":3253,"}))(":3254,"Ġij":3255,"Ġbc":3256,"125":3257,")|}{\\":3258,"Ġ36":3259,"}\\,\\,\\,":3260,")^*(":3261,"'d":3262,"\\}}.":3263,"ach":3264,"kT":3265,"})}^":3266,"))|\\":3267,"^*)=\\":3268,"},\\;\\":3269,"}|,":3270,")||_{":3271,"_+=":3272,"}[(\\":3273,"Ġ$(":3274,"}&=-\\":3275,"cccccc":3276,"br":3277,"_{\\#":3278,"}^{[\\":3279,")}\\;":3280,"ĠTM":3281,"}|}{":3282,"Ġ\\{-":3283,"\\}\\\\&=\\":3284,"dQ":3285,"gs":3286,"sho":3287,"|),":3288,"|&=\\":3289,"arge":3290,")^{{":3291,")}\\\\\\":3292,"ĠDu":3293,")})(":3294,"]=(":3295,"&&&":3296,"ject":3297,"')+\\":3298,"77":3299,"aj":3300,"iP":3301,"iY":3302,"kA":3303,"}'}":3304,"}\\;\\;\\":3305,"side":3306,"Det":3307,"Ġcl":3308,"jkl":3309,":\\:\\:":3310,"03":3311,"kg":3312,"ws":3313,"Ġ]=":3314,"(\\,\\":3315,"phys":3316,"intop":3317,"^{-}\\":3318,"Ġ\\\\(\\":3319,"\\|}":3320,"&=&\\":3321,")+{":3322,"}||^":3323,"\\};":3324,"subsetneq":3325,"}^*_{":3326,")).\\":3327,"WZ":3328,"}}>":3329,"}}},\\":3330,"}})^{\\":3331,"})}+\\":3332,"))).":3333,"))}{|":3334,")|+|":3335,"_+^{\\":3336,"\\\\&=-\\":3337,"unds":3338,"'}-":3339,")'\\":3340,"))\\\\&\\":3341,":(":3342,"\\:\\":3343,"iN":3344,"qa":3345,")}{=}":3346,"_{-}}":3347,")_-":3348,"Ġ^{*":3349,")!}.":3350,"Ġ*\\":3351,"256":3352,"Bbbk":3353,"'}_{\\":3354,"65":3355,"Pf":3356,"dK":3357,"iV":3358,"{-(":3359,"},~~":3360,"^*[":3361,"ĠAd":3362,"},\\,\\,":3363,":=(\\":3364,"\\,\\,\\,":3365,"+&":3366,"BM":3367,"TT":3368,"even":3369,"iE":3370,"kv":3371,"pd":3372,"rg":3373,"tb":3374,"vx":3375,"{(-\\":3376,"_++":3377,"}},{\\":3378,"}}^{(\\":3379,">.":3380,"RS":3381,"bp":3382,"mh":3383,"py":3384,"{)}":3385,"}~~\\":3386,"}\\}}":3387,"},...,\\":3388,")...":3389,"~~.":3390,"''-":3391,"}\\\\&+":3392,"pounds":3393,"Lip":3394,"SL":3395,"qs":3396,"td":3397,"}})_{":3398,"}),\\\\\\":3399,"}=|":3400,"lined":3401,"^*}^":3402,"ĠDf":3403,"^-_{\\":3404,"):=-\\":3405,"multlined":3406,"')}{":3407,"GS":3408,"\\}^{\\":3409,"_!":3410,"bn":3411,"cs":3412,"hc":3413,"tB":3414,"Ġbo":3415,"Ġ\\}_{":3416,"-\\{":3417,")=:":3418,"subject":3419,"}&:=\\":3420,"\\},\\\\\\":3421,"51":3422,"Ai":3423,"Dg":3424,"Tv":3425,"\\}_{\\":3426,"\\;\\;\\":3427,"_{\\!":3428,"opt":3429,")\\\\=":3430,")}({\\":3431,"_-}{":3432,")}=-":3433,"}}\\\\&=":3434,"allowbreak":3435,"&[":3436,">,":3437,"dU":3438,"nH":3439,"}\\}=":3440,"_{\\{|":3441,"}}}\\,":3442,"Ġ23":3443,"page":3444,"}&=-":3445,"}^+_":3446,"&*":3447,">_":3448,"AM":3449,"]\\\\&=\\":3450,"eB":3451,"sy":3452,"Ġ&:":3453,").\\\\":3454,"Ġ|}":3455,"ccl":3456,"^+=":3457,"^{*}_":3458,"\\\\&-\\":3459,"}}+{\\":3460,"noalign":3461,"}$}":3462,"mf":3463,"qn":3464,"rq":3465,"})|_{":3466,"))_{\\":3467,"\\,,\\,":3468,"ĠAu":3469,"longleftrightarrow":3470,"53":3471,":,":3472,"Rf":3473,"XX":3474,"])}":3475,"ipage":3476,"Ġim":3477,"}\\!\\!":3478,"inv":3479,"}}^*":3480,"Ġ&:=\\":3481,"erm":3482,"),{\\":3483,"Ġev":3484,"}+(-":3485,"there":3486,"minipage":3487,")]}":3488,"]/":3489,"zy":3490,"}{}":3491,"}})-":3492,"}))^":3493,"}}{[":3494,"124":3495,"Ġ_{(":3496,")\\,|\\,":3497,"_+,\\":3498,"))\\\\\\":3499,"}&(":3500,"'\\\\":3501,"')-\\":3502,"Ay":3503,"Br":3504,"DE":3505,"qy":3506,"uf":3507,"Ġ\\}=":3508,"_{_\\":3509,"^{~":3510,"^{'}(":3511,"Ġ\\\\=&\\":3512,"Ġcu":3513,"})\\;":3514,"Ġ_{{":3515,"}^*,":3516,"~~~~~~":3517,"\\\\&=(":3518,"Ġ...\\":3519,"UU":3520,"bv":3521,"grad":3522,"iL":3523,"jz":3524,"rT":3525,"Ġ}^\\":3526,"-\\,\\":3527,"})})":3528,"},~\\":3529,"}_{>":3530,"Ġtx":3531,"Ġ(\\|":3532,"}+|\\":3533,"ĠCo":3534,")}((":3535,"_-}\\":3536,"_{+}^":3537,"ize":3538,"&|":3539,"({{":3540,":|":3541,"Op":3542,"\\}-":3543,"]}|":3544,"kD":3545,"ld":3546,"vi":3547,"Ġnu":3548,"Ġ^*":3549,"_{*}\\":3550,"}\\!\\!\\":3551,"}}}^":3552,"}}}}}":3553,"})[\\":3554,")=\\\\":3555,"Ġ\\,:\\,":3556,"}]^{":3557,"_{+},":3558,"BF":3559,"Dx":3560,"]:=\\":3561,"iG":3562,"um":3563,"uw":3564,"|}}\\":3565,"|}{|\\":3566,"})^{(":3567,"^*)(":3568,"},\\;\\;":3569,"Ġ_{+":3570,"^+}{":3571,"}\\\\-":3572,"Ġ48":3573,"mode":3574,";\\\\&":3575,"Av":3576,"Lx":3577,"ise":3578,"sn":3579,"|{":3580,"Ġ=[":3581,"Ġ&>":3582,"),~~":3583,"Ġ|(\\":3584,")}\\|\\":3585,"}](\\":3586,"Ġ~+~":3587,"}=-{":3588,"Ġcos":3589,"!}(":3590,"Np":3591,"kN":3592,"kw":3593,"mz":3594,"Ġ\\!\\!\\":3595,"Ġ17":3596,"Ġ{_":3597,"Ġ|\\,":3598,")|\\\\":3599,"}\\\\&=(":3600,"arccos":3601,",+}(":3602,"sideset":3603,"89":3604,"CR":3605,"ben":3606,"drel":3607,"rz":3608,"=\\|\\":3609,"}})+":3610,"Ġpt":3611,"Ġ}~":3612,"sing":3613,")}}(\\":3614,"}=-{\\":3615,"}}}{{\\":3616,".(":3617,"Pro":3618,"dD":3619,"gy":3620,"pu":3621,"sk":3622,"tH":3623,"|}=\\":3624,"~&":3625,"Ġ}}.":3626,"}}})":3627,")=\\{\\":3628,"]\\;":3629,")_+\\":3630,"}\\|(":3631,"}}={\\":3632,"}/{\\":3633,"xyz":3634,"}\\\\&+\\":3635,"Ġ~~~~~":3636,"RF":3637,"\\}(":3638,"bj":3639,"nF":3640,"sg":3641,"}^{}\\":3642,"}}_{(":3643,"Ġ+(-":3644,"ĠdR":3645,")}{{\\":3646,"}^{(+":3647,"}|+":3648,")\\,(":3649,"\\{\\|":3650,"_+^\\":3651,"''_{\\":3652,"ĠOp":3653,"101":3654,"^{*},":3655,"ildrel":3656,"buildrel":3657,"Cov":3658,"!}=\\":3659,"#(":3660,"-.":3661,";(":3662,"NN":3663,"cf":3664,"hslash":3665,"kB":3666,"mspace":3667,"yp":3668,"Ġdef":3669,"=\\!\\":3670,"}}}+":3671,"Ġ&(\\":3672,"})[":3673,")}|^":3674,")=|\\":3675,"elli":3676,"Ġ\\,+\\,":3677,":=-\\":3678,"}}{\\|":3679,"}]^":3680,"\\!-\\!\\":3681,":-\\":3682,"Ext":3683,"\\>":3684,"]\\\\&\\":3685,"uy":3686,"xb":3687,"|[":3688,"}^{~":3689,"ĠdP":3690,"\\|(\\":3691,"Ġ{[":3692,"str":3693,"Ġmn":3694,")|^{-":3695,"^+-":3696,"''-\\":3697,"})={\\":3698,")}}^":3699,"ilb":3700,"*(":3701,"AZ":3702,"Ty":3703,"\\}-\\":3704,"\\})=\\":3705,"]\\}":3706,"|}\\,":3707,"Ġ}({\\":3708,"}_{,":3709,"overleftarrow":3710,"))),":3711,"Ġpq":3712,"}}((":3713,"110":3714,"Ġ,\\;":3715,"&{":3716,"'}^{-":3717,"Ae":3718,"DA":3719,"\\}}{":3720,"csc":3721,"sm":3722,"Ġrank":3723,"Ġ\\})":3724,"inite":3725,"Ġ=|":3726,"Ġex":3727,"com":3728,";\\;\\;\\;\\;":3729,")&=(\\":3730,"_{*}(":3731,"92":3732,"Ind":3733,"my":3734,"sT":3735,",\\:":3736,"Ġix":3737,"})\\}":3738,"}|{\\":3739,"Ġ)}(":3740,"Ġdxdy":3741,"}^*)":3742,"^{+},":3743,")\\;=\\;":3744,"+,":3745,",.":3746,"RT":3747,"iQ":3748,"qf":3749,"}}}+\\":3750,"Ġ&{":3751,"Ġ&|":3752,"Ġ&\\{":3753,"}_+\\":3754,"\\\\=":3755,")))=":3756,"^*)^{":3757,"^*)^{-":3758,"Ġ}}(":3759,"}\\,{":3760,"\\}}{\\":3761,"ĠYM":3762,"_+^{":3763,"^{+}}":3764,"arcsin":3765,"Ġconstant":3766,".\\\\&\\":3767,"DH":3768,"SM":3769,"YZ":3770,"[|\\":3771,"nE":3772,"Ġ\\!\\!\\!":3773,"the":3774,"mathelli":3775,"psis":3776,"}_{+}":3777,"Ġ)_":3778,"_{+})":3779,"=&(":3780,"short":3781,"mathellipsis":3782,"')\\,":3783,"04":3784,"Jx":3785,"NP":3786,"TQ":3787,"\\}\\,,":3788,"jA":3789,"kX":3790,"when":3791,"{~":3792,"{+}":3793,"_{~":3794,"}}))":3795,"Ġ&~":3796,"varPsi":3797,"},(\\":3798,"Ġeach":3799,")(-\\":3800,")|+":3801,"^+)^":3802,"^{*}_{\\":3803,"};\\\\":3804,"rrrr":3805,"Ch":3806,"MC":3807,"gu":3808,"nA":3809,"nw":3810,"wx":3811,"xs":3812,"Ġdb":3813,"}_+(":3814,")^{*":3815,"\\,}\\":3816,")-{":3817,"})\\|":3818,":=\\{\\":3819,"_{-}(\\":3820,"^+=\\":3821,"^{+}}\\":3822,"DB":3823,"LT":3824,"\\})=":3825,"]/(":3826,"ble":3827,"ea":3828,"iM":3829,"jd":3830,"vt":3831,"val":3832,"yt":3833,"âĢ":3834,"tic":3835,"})}+":3836,")}<\\":3837,"Ġterms":3838,")^{*}":3839,")({\\":3840,":=&\\":3841,"Ġ=\\;":3842,"Ġ)(\\":3843,"}]_{\\":3844,"}}_{{\\":3845,"_{++":3846,"}_{+}^{":3847,"}...\\":3848,"'s":3849,"+)":3850,"97":3851,"SP":3852,"cp":3853,"vac":3854,"ww":3855,"|_{(":3856,"ĠdF":3857,"ĠdZ":3858,"\\,:\\,":3859,"},\\{":3860,"}=\\{(":3861,"Ġ\\|_\\":3862,"]\\,\\":3863,"'''":3864,"''}\\":3865,"_--":3866,"'}+\\":3867,"NM":3868,"PT":3869,"aP":3870,"dG":3871,"eth":3872,"nX":3873,"^{\\,\\":3874,"Ġ25":3875,"Ġ27":3876,"Ġiz":3877,"Ġnk":3878,"),\\;\\;":3879,"}|=\\":3880,"{[}":3881,"'^\\":3882,"*}(\\":3883,">-":3884,"@{}":3885,"CA":3886,"Lf":3887,"dC":3888,"frow":3889,"hv":3890,"pv":3891,"red":3892,"tch":3893,"xleftarrow":3894,"Ġ}},":3895,")\\}_{":3896,")\\}=":3897,"ment":3898,"})}_{":3899,"root":3900,"Ġ|_":3901,")+|":3902,"}+\\|\\":3903,"Ġ}\\,\\":3904,"}]}\\":3905,"'')\\":3906,")})_{":3907,")|\\\\&\\":3908,")~=~":3909,"Ġ\\;\\;\\;\\;\\;":3910,"frown":3911,",~~~~":3912,"81":3913,"SR":3914,"Tw":3915,"hh":3916,"tk":3917,"|)^{-":3918,"ard":3919,"})},\\":3920,"Ġ-[":3921,"),[":3922,"}.\\\\":3923,"))&":3924,"Ġwhen":3925,"_{(-\\":3926,"^-_\\":3927,"_-,\\":3928,"models":3929,"/{":3930,"Bx":3931,"Jq":3932,"SD":3933,"bk":3934,"lc":3935,"lp":3936,"ry":3937,"|}=":3938,"_{}\\":3939,"}})(\\":3940,"dast":3941,"}]-":3942,")})}":3943,"}&&":3944,"}_+^":3945,"circledast":3946,"63":3947,"Kf":3948,"ML":3949,"SNR":3950,"TZ":3951,"]\\\\&":3952,"ant":3953,"dN":3954,"eu":3955,"xh":3956,"|}}{":3957,"raise":3958,")=\\|":3959,"}-|\\":3960,"Ġcd":3961,"}\\,=\\,\\":3962,")|+|\\":3963,",\\\\-":3964,"rea":3965,"\\;=\\;":3966,")\\\\&-\\":3967,"}^{*}(\\":3968,"'&=":3969,"'}}{":3970,"DT":3971,"JK":3972,"Mf":3973,"\\}\\\\&\\":3974,"qj":3975,"xa":3976,")\\}=\\":3977,"Ġ\\\\\\\\":3978,"),~\\":3979,"^*)-":3980,"\\|^{\\":3981,"ĠHilb":3982,"}|^{-":3983,"Ġ\\{(\\":3984,"smallskip":3985,"}\\!-\\!":3986,"âĢĲ":3987,"'}-\\":3988,")_{-":3989,"){{\\":3990,"85":3991,"Az":3992,"Hess":3993,"XZ":3994,"ent":3995,"ha":3996,"idx":3997,"kc":3998,"{,}":3999,"Ġ\\;\\;\\;\\;\\;\\;":4000,"}}}_":4001,"^{-|\\":4002,"\\{[":4003,"}|-":4004,"_+.":4005,"_+}{":4006,"^-=":4007,")})^{\\":4008,"}&:=":4009,"):=&\\":4010,"_{+}(\\":4011,"Ġ64":4012,"}}}{{":4013,"}^+(\\":4014,"arpoon":4015,"+...+":4016,"CH":4017,"NL":4018,"RL":4019,"iC":4020,"jV":4021,"mL":4022,"pf":4023,"~(":4024,"Ġ)},":4025,"Ġ([\\":4026,"Ġ-(-":4027,"\\,[":4028,"Ġgh":4029,")&=&\\":4030,")!},":4031,"^{*})":4032,")\\|_\\":4033,"&|\\":4034,"NT":4035,"\\}^{(":4036,"jg":4037,"lq":4038,"nK":4039,"pw":4040,"pz":4041,"rh":4042,"sv":4043,"uph":4044,"~=~\\":4045,"}))^{":4046,"+\\;":4047,"Ġac":4048,"Ġexists":4049,"Ġ\\,.\\":4050,"Ġie":4051,"ĠGL":4052,"cent":4053,"}[-":4054,"{-}\\":4055,"134":4056,")\\\\&=-\\":4057,"):\\,":4058,"rule":4059,"upharpoon":4060,"$}\\\\":4061,"'^{(":4062,"({{\\":4063,"))}=":4064,"95":4065,"RR":4066,"],\\\\\\":4067,"ation":4068,"iK":4069,"lx":4070,"rv":4071,"{=":4072,"}}+(":4073,"Ġ+\\|":4074,"ĠdM":4075,"ĠdY":4076,"}=-(":4077,"Ġgrad":4078,"),\\,\\":4079,"..,":4080,"})=(-":4081,")}}{{\\":4082,"}^+}":4083,"Ġ\\#\\":4084,"{}{}{":4085,"$},\\\\":4086,"'>":4087,"')^{\\":4088,"HP":4089,"tc":4090,"xd":4091,"^{^{\\":4092,"_{\\;\\;":4093,"}})+\\":4094,"Ġ&,":4095,"})]\\":4096,")^{{\\":4097,"))|^":4098,"ĠHom":4099,"122":4100,"}^{-(":4101,")]-":4102,"}[|":4103,"_{+}-":4104,"=-{\\":4105,"Ġ&=\\{":4106,"}_{-}":4107,"upharpoonright":4108,"!^":4109,"200":4110,"84":4111,"JY":4112,"Mr":4113,"iW":4114,"tS":4115,"trace":4116,"xT":4117,"zv":4118,"|}(\\":4119,"Ġ}\\\\":4120,"Ġ\\-":4121,"}\\}=\\":4122,"}}}^{\\":4123,"}}\\!\\":4124,"Ġ{}^{\\":4125,"cor":4126,"eqn":4127,"_{-},":4128,"}&{":4129,"^{+}_":4130,"^{+}_{\\":4131,"234":4132,"|-|\\":4133,"$},\\":4134,",&&":4135,"-})":4136,"211":4137,"<(":4138,"CB":4139,"Di":4140,"Nx":4141,"TD":4142,"][\\":4143,"el":4144,"free":4145,"lg":4146,"}{[\\":4147,"Ġ\\\\+":4148,")=[\\":4149,"ape":4150,"^*}{\\":4151,"{((":4152,"Ġ30":4153,"108":4154,"]=[\\":4155,"boxed":4156,",-}(":4157,"}'=\\":4158,"ccccccc":4159,"$}_{":4160,"69":4161,";(\\":4162,"<{\\":4163,"By":4164,"Cx":4165,"GM":4166,"KN":4167,"Te":4168,"VP":4169,"\\!\\!\\!":4170,"]\\\\\\":4171,"aX":4172,"ah":4173,"bl":4174,"jc":4175,"kP":4176,"kij":4177,"sma":4178,"ug":4179,"|^{-(":4180,"Ġsupp":4181,"Ġ\\},\\\\":4182,"Ġ+[":4183,"imize":4184,"Ġnx":4185,"Ġ}[":4186,"}}{(-":4187,")}{[":4188,")\\\\(":4189,")|^\\":4190,"}}({":4191,"}]+[":4192,"disc":4193,")!!":4194,"\\\\&-":4195,"^{'}_{":4196,"+}^{\\":4197,"Nf":4198,"PA":4199,"YX":4200,"\\}),":4201,"]^{(":4202,"aD":4203,"jX":4204,"nL":4205,"vs":4206,"Ġ''":4207,")\\!\\":4208,"=\\\\":4209,"})].":4210,"leqq":4211,"}+[":4212,"))&\\":4213,"Ġ-\\,":4214,"_+=\\":4215,")]+\\":4216,"^-.":4217,")!}{\\":4218,"),\\\\(":4219,")}+\\|":4220,"Ġ\\!+\\!":4221,",~~~\\":4222,"mber":4223,"'}}(":4224,",$":4225,"Con":4226,"Tg":4227,"kC":4228,"rw":4229,"xF":4230,"|)^{\\":4231,"Ġ'(":4232,"}\\;\\;\\;":4233,"(\\!":4234,"}_{*":4235,"Ġ\\,(\\":4236,":=-":4237,"Ġjk":4238,")\\,=\\,\\":4239,"^++":4240,"^+)\\":4241,"((-\\":4242,"Ġ~{\\":4243,"})=\\{":4244,"):=(\\":4245,"\\#\\":4246,"\\!\\!\\!\\":4247,"!\\,":4248,"BE":4249,"Ju":4250,"TS":4251,"bi":4252,"ep":4253,"gl":4254,"mR":4255,"qb":4256,"|^{(":4257,"Ġig":4258,"Ġ})=\\":4259,"Ġare":4260,"alg":4261,"tisf":4262,"}})}\\":4263,"Ġ\\\\|":4264,"Ġne":4265,":=\\,\\":4266,"}]+\\":4267,"}[{\\":4268,"Ġ~,~":4269,"}{||":4270,"Ġ\\\\&=(":4271,"\\\\&&":4272,"))=(\\":4273,"}:=(":4274,"Ġ\\#\\{":4275,"':":4276,"Aut":4277,"eV":4278,"jw":4279,"lcr":4280,"yr":4281,"Ġme":4282,"Ġ\\,\\,\\,\\,\\":4283,"}},\\\\\\":4284,"erf":4285,"Ġ28":4286,"Ġext":4287,"&=[":4288,"cov":4289,"Ġ)-\\":4290,"}]=-":4291,"^-=\\":4292,"}}=(\\":4293,"}~=~":4294,");\\\\":4295,"Ca":4296,"Hg":4297,"\\}^{-":4298,"of":4299,"sA":4300,"yv":4301,"Ġ\\.":4302,"^{}_":4303,"}^{|\\":4304,"})}}{":4305,"})^*\\":4306,"see":4307,"}}\\{":4308,")):":4309,"Ġ_{(\\":4310,":=\\,":4311,"Ġ\\{|":4312,"}][":4313,")]_{\\":4314,")})-":4315,"\\}\\\\\\":4316,"144":4317,"!)^{":4318,"))^*":4319,"))\\,.":4320,"]}+\\":4321,"jT":4322,"mit":4323,"pF":4324,"tD":4325,"xM":4326,"|)}":4327,"Ġ+|\\":4328,")},\\\\\\":4329,"|\\!":4330,"\\||":4331,"Ġsa":4332,"coh":4333,"colse":4334,")|+\\":4335,")|<\\":4336,"\\{\\{":4337,"_{-(":4338,"^+}(":4339,"Ġ$|":4340,"}&-":4341,"}^*.":4342,")}={\\":4343,"\\\\&&\\":4344,"))=-\\":4345,")=-{":4346,"colsep":4347,".\\,":4348,":&":4349,"PB":4350,"Sym":4351,"]},\\":4352,"iZ":4353,"mv":4354,"tm":4355,"~,\\":4356,"_{~\\":4357,")\\{":4358,"})}}\\":4359,"local":4360,"Ġ26":4361,"Ġnot":4362,"Ġyx":4363,"Ġcom":4364,"}|+|":4365,"Ġ)_{\\":4366,"_-=\\":4367,"}\\|_\\":4368,"}',\\":4369,"^{++}":4370,"xxxx":4371,"}^+,":4372,"]}}({":4373,"'[":4374,")~~":4375,"-~":4376,"Bh":4377,"DN":4378,"TL":4379,"mg":4380,"}~~~":4381,"^{=":4382,",\\{\\":4383,"}}}-\\":4384,"})<":4385,"})],":4386,")=&(":4387,"Ġtot":4388,"ĠAX":4389,"Ġ}&":4390,"}|+\\":4391,")|>":4392,"})=&":4393,"))\\,\\":4394,"132":4395,"240":4396,")\\\\&-":4397,"Ġ:=\\,":4398,",\\;\\;\\;\\":4399,"')}{\\":4400,"'\\|^":4401,"(||":4402,"))}=\\":4403,",(-":4404,"={{":4405,"AV":4406,"At":4407,"cg":4408,"ul":4409,"ur":4410,"yH":4411,"|~\\":4412,"Ġ\\&":4413,"_{;":4414,"_{\\;":4415,"}}]\\":4416,"})'(":4417,"}=[\\":4418,"arraycolsep":4419,"}+...":4420,"^*)}":4421,"}}{=}\\":4422,"Ġba":4423,"*}[":4424,"\\}:":4425,"_{-})":4426,"}),(":4427,"}'}\\":4428,"\\\\&&&":4429,"192":4430,"Prod":4431,")''":4432,".~":4433,"CL":4434,"FP":4435,"GF":4436,"dJ":4437,"hD":4438,"nB":4439,"xB":4440,"Ġho":4441,")}~":4442,"}^*}":4443,"^{-}_":4444,"},~~~":4445,"}_-\\":4446,"}^{\\#":4447,"^*|":4448,"Ġ}|\\":4449,"Ġca":4450,"Ġct":4451,"}|)":4452,"}\\\\(":4453,"form":4454,"}}={":4455,"_{+}}\\":4456,"|\\\\&=":4457,"}\\!+\\!":4458,"SINR":4459,"$;}":4460,"'}^\\":4461,"'\\}":4462,"94":4463,"CT":4464,"PV":4465,"]}+":4466,"osc":4467,"pH":4468,"pb":4469,"uge":4470,"Ġ}^{-":4471,"}\\}}\\":4472,",\\|":4473,"ero":4474,")}+(":4475,"Ġ\\\\=\\":4476,"\\\\(\\":4477,"Ġequ":4478,"\\|=\\|":4479,"Ġ{|\\":4480,"stre":4481,"}_{\\{-":4482,"Ġwe":4483,"ĠNS":4484,"),\\;\\;\\;":4485,"Ġ)^\\":4486,"^-}{":4487,"_-+":4488,"^{*}}\\":4489,"}:\\,":4490,"Ġ&&&":4491,")}}{{":4492,"Ġ\\;\\;.":4493,"$}.\\":4494,"'&":4495,"BT":4496,"IV":4497,"LL":4498,"Nu":4499,"])+":4500,"rN":4501,"rlap":4502,"yl":4503,"Ġ}}=":4504,"^{}(":4505,")}<":4506,"varOmega":4507,"))/":4508,"\\,;":4509,")|-":4510,"\\{\\,":4511,"Ġ}\\,\\,":4512,")],\\":4513,"}&-\\":4514,"001":4515,"=&-\\":4516,"mnp":4517,"ence":4518,"tions":4519,"!}}\\":4520,"'<":4521,"'^{\\":4522,"'}}{\\":4523,"+[\\":4524,"212":4525,"DP":4526,"GE":4527,"IR":4528,"Je":4529,"TH":4530,"UE":4531,"])^":4532,"],\\,":4533,"fd":4534,"pA":4535,"put":4536,"xD":4537,"{_{":4538,"_{\\;\\;\\":4539,"}_{|\\":4540,"ĠdU":4541,")=+\\":4542,"))+(":4543,"\\,+\\,":4544,"Ġ{(-":4545,"Ġ,{\\":4546,"Ġ|=":4547,"[\\{":4548,"\\{{":4549,"(-{":4550,"Ġ40":4551,"1111":4552,"_-=":4553,"_-^{-":4554,")}}_{":4555,")}=(\\":4556,"([-":4557,"ipx":4558,"~~~~~~~~~~~~~~~~~~~~~~~~~~~~~~~~":4559,"stretch":4560,"$}(":4561,"Aa":4562,"Aw":4563,"DD":4564,"End":4565,"FS":4566,"Nd":4567,"TR":4568,"Xu":4569,"rll":4570,"tT":4571,"tdt":4572,"vp":4573,"yw":4574,"|&":4575,")\\|^{":4576,"}})}{":4577,"Ġ&.\\":4578,"})&=(":4579,"^{-},":4580,"ĠdE":4581,"^*))":4582,"\\,+\\,\\":4583,"\\|}\\":4584,"Ġper":4585,"Ġbx":4586,"Ġ[{":4587,"Ġ\\|(\\":4588,")}{\\|":4589,")}},\\":4590,"tter":4591,"!}}":4592,"-)":4593,"-,":4594,"-},":4595,"011":4596,"74":4597,"FG":4598,"Large":4599,"SC":4600,"\\;\\;\\;":4601,"aT":4602,"ht":4603,"lf":4604,"vline":4605,"yf":4606,"{}\\,":4607,"Ġqu":4608,"Ġ\\:\\:\\:":4609,"}\\\\{\\":4610,"suit":4611,"|\\\\\\":4612,")=:\\":4613,")=\\{(":4614,"))}(":4615,"\\|}^":4616,"&\\{":4617,"Ġyz":4618,"Ġ}}^{\\":4619,"}\\,|\\,":4620,"(-{\\":4621,")|)":4622,")||^":4623,"}]^{-":4624,"Ġ\\\\&&":4625,")]\\\\":4626,"ren":4627,":\\!":4628,"135":4629,")}(\\{":4630,"))=-":4631,"Ġ;\\\\":4632,"}}-{\\":4633,"IJK":4634,"'/\\":4635,")*\\":4636,"*(\\":4637,",+}":4638,"010":4639,"61":4640,"AU":4641,"AdS":4642,"Dp":4643,"Me":4644,"Td":4645,"\\}}}":4646,"\\}\\\\&":4647,"ee":4648,"nN":4649,"{=}":4650,"}!}":4651,"Ġ}=-\\":4652,"_{}^{":4653,"_{},":4654,"_{}(\\":4655,"^{'}\\":4656,"Ġ&|\\":4657,"Ġ&~\\":4658,"})'":4659,")}^*":4660,"gauge":4661,"}(\\{\\":4662,"}}\\;.":4663,"comp":4664,"Ġwt":4665,"'(-":4666,"|_{[":4667,")][":4668,"))\\}":4669,"_*^{-":4670,"}}^{*":4671,"}}^{*}":4672,"166":4673,"ABCD":4674,"ixed":4675,")^{(-":4676,"Ġ~~~\\":4677,"}]=[":4678,"'|^{":4679,"87":4680,"><":4681,"BV":4682,"DR":4683,"Ex":4684,"LM":4685,"aA":4686,"cv":4687,"fi":4688,"hn":4689,"zI":4690,"|}+":4691,"}!\\":4692,"Ġpar":4693,"Ġ\\;\\;\\;\\;\\":4694,"_{+\\":4695,"}{{{\\":4696,"lement":4697,"}}),\\":4698,"})}-\\":4699,"Ġun":4700,"Ġfg":4701,"arraystretch":4702,"Ġ\\,,\\,":4703,"Ġnp":4704,"Ġpr":4705,"Ġ&=(\\":4706,"Ġkx":4707,"ĠCe":4708,"Ġ.\\\\\\":4709,"Ġsp":4710,"ĠLu":4711,"setlength":4712,"1212":4713,"_{--":4714,")_{,":4715,")},&":4716,"^-)^":4717,"_*}\\":4718,"\\|\\|":4719,")}={":4720,"Ġout":4721,"\\}\\}":4722,")&=\\{":4723,",-}":4724,"iii":4725,")^*,":4726,"Ġ=&\\,":4727,"Ġ\\!-\\!":4728,"'}|":4729,")[(":4730,",*}\\":4731,"SE":4732,"TN":4733,"\\}\\\\&=":4734,"_>":4735,"ect":4736,"gA":4737,"gv":4738,"mN":4739,"pj":4740,"xL":4741,"Ġ\\:\\:":4742,"inde":4743,"}^{'}(":4744,"}}}-":4745,"cdotp":4746,"ĠdH":4747,"Ġdc":4748,"}}\\;\\":4749,"\\|_*":4750,"Ġ}}{{\\":4751,")-|":4752,"ĠDF":4753,"}|<":4754,")||\\":4755,"_+}(":4756,")_{+":4757,"Ġ\\\\&-\\":4758,"))\\;":4759,"102":4760,"_*^{":4761,"_-^{\\":4762,"_-^\\":4763,"Ġ~(":4764,")}}}\\":4765,"}^-_{":4766,"')]":4767,">_{\\":4768,"Nr":4769,"Pl":4770,"Ra":4771,"UT":4772,"aN":4773,"eA":4774,"tU":4775,"{*":4776,"Ġop":4777,"ĠDet":4778,",\\;\\;\\;\\;\\":4779,"ded":4780,"}}}}{":4781,"loop":4782,")})\\,":4783,"}_{[\\":4784,"Ġdl":4785,"Ġdn":4786,"Ġ19":4787,"Ġiy":4788,"))}{(":4789,"}-(-":4790,"triction":4791,"}=\\\\":4792,"Ġbe":4793,"ĠCT":4794,"}_{\\{\\":4795,"ĠSym":4796,"}\\,|":4797,"}\\,,\\,":4798,"}|}{\\":4799,")})}{\\":4800,"160":4801,"psmall":4802,"arrowvert":4803,"psmallmatrix":4804,"':=":4805,"'}\\,":4806,"'}}}":4807,"-[\\":4808,".&":4809,"=_":4810,"AR":4811,"AT":4812,"BL":4813,"KM":4814,"Yu":4815,"nS":4816,"non":4817,"qw":4818,"yq":4819,"Ġ}{|":4820,"Ġ]}":4821,"Ġ}}=\\":4822,"Ġphys":4823,"Ġ\\}|":4824,"}{@{}":4825,"Ġ=\\\\":4826,"}})-\\":4827,"})~":4828,"},[\\":4829,"labe":4830,"}}\\|_{":4831,"Ġ(\\,":4832,"))-(":4833,"^*\\|^":4834,"Ġkj":4835,"ĠTx":4836,")-(-":4837,"dxds":4838,"}],\\":4839,")_{|":4840,"~~~~~\\":4841,"})+(\\":4842,"\\!+\\!\\":4843,")^*.":4844,"}_{+}\\":4845,"ĠRes":4846,"BMO":4847,"'\\|":4848,"321":4849,"=+\\":4850,"Ce":4851,"bg":4852,"hs":4853,"iU":4854,"jR":4855,"vf":4856,"{+}\\":4857,"|},\\":4858,"|}|":4859,"Ġra":4860,"Ġ}(-":4861,"Ġ\\!\\!\\!\\!\\":4862,")\\>":4863,")\\;\\;":4864,"such":4865,"}))}":4866,"}))\\\\":4867,"})|^{":4868,")}}\\,":4869,")}]_":4870,"_\\#":4871,"bigm":4872,"Ġia":4873,"^*},":4874,"\\,|\\":4875,"ĠPf":4876,"{({\\":4877,"''=\\":4878,"^-}(":4879,")}}+":4880,"{{{{\\":4881,"):&=\\":4882,"})}{=}":4883,"old":4884,"'}).":4885,"'))\\":4886,"))\\,,":4887,"BG":4888,"fu":4889,"mM":4890,"nC":4891,"nD":4892,"qT":4893,"tP":4894,"zu":4895,"{}&":4896,"|))":4897,"tal":4898,"}}~\\":4899,"}}~,":4900,"}{\\,":4901,"ĠdL":4902,"ĠAv":4903,"Ġvac":4904,"Ġpo":4905,"Ġ|,":4906,"Ġcp":4907,"ĠCl":4908,"ijl":4909,"})\\}.":4910,"{(|":4911,":=\\{(":4912,",\\\\-\\":4913,"_{-}-":4914,"]\\;.":4915,"}},&":4916,")_*\\":4917,")]}{\\":4918,"Ġ^{+":4919,"{||":4920,"\\|\\\\&\\":4921,"Ġ\\\\&=(\\":4922,"}'=":4923,"!\\!\\!\\":4924,"}_+,\\":4925,"'_{(":4926,":}":4927,"@{":4928,"CN":4929,"Cl":4930,"Nz":4931,"WF":4932,"]/\\":4933,"gd":4934,"xX":4935,"tag":4936,"{\\#":4937,"Ġ&.":4938,"}):\\":4939,"mul":4940,")}}^{":4941,"ĠdT":4942,"}_-(":4943,"Ġnon":4944,"^*}(\\":4945,"ĠAe":4946,"Ġ{}^\\":4947,"},\\,\\,\\,":4948,"Ġ|.":4949,"ĠSL":4950,"})\\;.":4951,"),\\;\\":4952,"}||_{\\":4953,"..\\":4954,",\\\\(\\":4955,"^-)\\":4956,")&=(-":4957,")}))":4958,"^{+}(\\":4959,"}\\;=\\;":4960,"triangledown":4961,"}:=\\{\\":4962,"dvol":4963,"Ġ\\;\\;,":4964,"restriction":4965,"$.}\\":4966,"'&=\\":4967,"'})=":4968,"09":4969,"626":4970,"Be":4971,"DL":4972,"Eu":4973,"Hu":4974,"KK":4975,"Ne":4976,"PR":4977,"Sf":4978,"UL":4979,"\\}}=":4980,"bxz":4981,"zL":4982,"{+":4983,"Ġ})=":4984,"Ġ'_":4985,"Ġ=\\|":4986,"}}|_{":4987,"}}~.":4988,"Ġ&\\|":4989,"Ġ&,&":4990,"-\\|\\":4991,"})))":4992,"})/\\":4993,"}}\\!":4994,"Ġ{}&":4995,"ĠTu":4996,")|}.":4997,"uplus":4998,")]}{":4999,"Ġ_*":5000,"+(-\\":5001,")}),\\":5002,")})+\\":5003,"}{|{\\":5004,"}^*=":5005,")&-":5006,"}~{\\":5007,"Ġ\\{\\,":5008,"})-(\\":5009,"1728":5010,"_!{\\":5011,"Ġsatisf":5012,"!}\\,":5013,"')=(":5014,"86":5015,"DC":5016,"Gr":5017,"LP":5018,"PP":5019,"Ta":5020,"XJ":5021,"]}^{\\":5022,"nQ":5023,"rb":5024,"rdr":5025,"vspace":5026,"|:":5027,"|}+\\":5028,"|(|":5029,"}\\\\{":5030,"ary":5031,"{\\{\\":5032,"_{\\|\\":5033,"Ġ&\\\\\\":5034,"sure":5035,"ĠdK":5036,"null":5037,")))=\\":5038,"^*}}":5039,"Ġ{}^{":5040,"},\\;\\;\\;":5041,"Ġpa":5042,"Ġpro":5043,")}\\;.":5044,":=&":5045,"ĠCP":5046,"ĠDg":5047,"Ġ&\\;\\;":5048,"}]}(":5049,"_-)\\":5050,"}}^{+":5051,"Ġ]_{":5052,"\\}}-\\":5053,"_{{}_":5054,"}_+,":5055,"567":5056,"\\},\\\\&":5057,"cyc":5058,"';\\":5059,")*}":5060,"+...":5061,"EG":5062,"LR":5063,"Na":5064,"SH":5065,"TC":5066,"fv":5067,"kL":5068,"tZ":5069,"xA":5070,"xP":5071,"{=}\\":5072,"|&=":5073,"Ġle":5074,"Ġthere":5075,"Ġ\\,\\,\\,\\":5076,"}{{{":5077,")\\;\\;\\":5078,"})}\\,":5079,")}-(":5080,"),~~~":5081,").}":5082,"Ġ21":5083,"}=:\\":5084,"ĠCon":5085,"Ġsing":5086,"ĠPr":5087,"),\\,\\,\\,":5088,"ĠKer":5089,"]\\}.":5090,")]}\\":5091,"Ġ34":5092,"_*)\\":5093,"{|}":5094,"Ġ]=\\":5095,")\\\\&=-":5096,"!\\!\\!\\!":5097,"}^{*}=\\":5098,"180":5099,"Ġ\\#(":5100,")|=|\\":5101,"$,}\\\\":5102,"key":5103,"Ġcurl":5104,"smash":5105,"(+\\":5106,"+_":5107,"=:\\":5108,"Ng":5109,"TY":5110,"ZZ":5111,"bh":5112,"else":5113,"lb":5114,"nM":5115,"rot":5116,"|}^{":5117,"Ġset":5118,"^{<":5119,"main":5120,")\\}\\\\":5121,"}};\\":5122,"})}_":5123,"})}\\\\":5124,")}||":5125,"),-":5126,"^*}_{":5127,"Ġ||^":5128,"can":5129,"Ġmm":5130,"}|=(":5131,",\\,{\\":5132,"_++\\":5133,")](\\":5134,"1000":5135,")})(\\":5136,")})-\\":5137,"}^*_{\\":5138,"222":5139,"}&=(\\":5140,"Ġind":5141,"most":5142,"label":5143,"'|^{\\":5144,"+)}":5145,"83":5146,"Div":5147,"FB":5148,"Rx":5149,"Sh":5150,"Vf":5151,"_<":5152,"jik":5153,"mw":5154,"pB":5155,"tC":5156,"tY":5157,"tj":5158,"|)(":5159,"|/\\":5160,"}\\:\\":5161,"almost":5162,"Ġ&[":5163,")}}^{\\":5164,"Ġ\\\\\\\\\\":5165,"}_{(-":5166,").\\\\\\":5167,"}.\\\\\\":5168,"}+...+":5169,"))}}":5170,"^*;":5171,"\\|+\\|":5172,"ĠEf":5173,"Ġ=\\{\\":5174,"Ġ\\||":5175,"_*}{":5176,"_*}(":5177,"^{*(":5178,")}})":5179,"{|{\\":5180,"}=-(\\":5181,"{[}\\":5182,"Ġonly":5183,"'|_{":5184,"79":5185,"DM":5186,"Rm":5187,"]^{-\\":5188,"^!":5189,"fh":5190,"kM":5191,"ple":5192,"tG":5193,"{^":5194,"}\\},\\":5195,"_{\\!\\":5196,")\\}}":5197,"}})_{\\":5198,"eger":5199,"}\\,[":5200,"Ġ_{-\\":5201,"Ġ\\;{\\":5202,")^{-(\\":5203,"Ġ:=&":5204,"upp":5205,"\\}/":5206,"_{-}=":5207,"}{(|":5208,"resp":5209,"^-,\\":5210,"_-}(":5211,"_{+-":5212,"}'_{\\":5213,"}\\;{\\":5214,"never":5215,")^*=":5216,"henever":5217,"37166":5218,",\\;\\;\\;\\;":5219,"Ġnumber":5220,"shortintertext":5221,"multi":5222,"62637166":5223,"'|_":5224,"+&\\":5225,"+{{":5226,".}}":5227,":[":5228,"BU":5229,"Pu":5230,"TG":5231,"\\!\\!\\!\\!\\":5232,"]}^{(":5233,"]}{(":5234,"]}\\|":5235,"dom":5236,"jL":5237,"ter":5238,"{}{\\":5239,")\\|=":5240,"Ġ-|\\":5241,")},\\\\&":5242,"Ġ100":5243,")^-":5244,"\\\\\\\\":5245,"}=+\\":5246,"^{(-\\":5247,"^*]":5248,"}|(\\":5249,"}}(-\\":5250,"_{-}^{\\":5251,"''}(":5252,")])":5253,"^--":5254,"_*-":5255,")}_{{\\":5256,"^{*\\":5257,"\\;{\\":5258,"\\;,\\":5259,"true":5260,")^*(\\":5261,"arrowleft":5262,"]\\\\=&":5263,"^{(+)}_{":5264,"$}}":5265,")~~~,":5266,"AW":5267,"BK":5268,"BN":5269,"DG":5270,"INR":5271,"Nt":5272,"\\})+":5273,"``":5274,"card":5275,"gN":5276,"tn":5277,"yb":5278,"|)+":5279,"~(\\":5280,"mathrel":5281,"Ġ&,\\":5282,"}))_{":5283,")){\\":5284,"^*)+\\":5285,"Ġ|^{\\":5286,";\\,\\":5287,"ĠBu":5288,"Ġha":5289,"}\\,_{":5290,"Ġ\\|^{":5291,")|}{|\\":5292,"'',\\":5293,")})}\\":5294,"]=&":5295,"\\}\\}.":5296,"};-":5297,"):&=":5298,"]_<":5299,"}^+_{":5300,"]{}":5301,"cccccccc":5302,"|\\\\&=\\":5303,"}^-_":5304,"Spec":5305,"Ġbound":5306,"'}),":5307,"(+":5308,",,":5309,",_":5310,".{\\":5311,"012":5312,"73":5313,"BI":5314,"Cap":5315,"Hat":5316,"Mu":5317,"bA":5318,"fx":5319,"gt":5320,"jB":5321,"lh":5322,"ous":5323,"zA":5324,"{}+":5325,"|}-":5326,"Ġ)\\\\":5327,"Ġarg":5328,"}\\},\\\\":5329,"mathc":5330,"}}))\\":5331,"Ġ+_":5332,"})}-":5333,"varDelta":5334,"law":5335,"^*}^{":5336,"\\|{\\":5337,"\\|+\\":5338,"}=\\|\\":5339,"Ġker":5340,"Ġbd":5341,"Ġqx":5342,"ĠDA":5343,"})\\|^":5344,"ĠVar":5345,"121":5346,"}\\,.\\":5347,"uni":5348,")_{[":5349,"})=&\\":5350,"))\\|_{":5351,")/(\\":5352,"Ġ~|~":5353,"^{*}=\\":5354,")}}-":5355,")}}+\\":5356,"}^*=\\":5357,"}'+":5358,"}~(":5359,"\\\\&=&":5360,"oly":5361,"isH":5362,"rrr":5363,"}$\\":5364,"288":5365,"!}=":5366,"'=(":5367,"-)\\":5368,"JM":5369,"Jv":5370,"La":5371,"MM":5372,"\\&=\\":5373,"]}-":5374,"eh":5375,"fe":5376,"rA":5377,"va":5378,"xJ":5379,"zg":5380,"~,~":5381,"}\\})":5382,"man":5383,"fter":5384,"}^{'}":5385,"Ġ&\\\\&":5386,"Ġ+\\,":5387,"}))^{-":5388,")}].":5389,")}}{|":5390,"^{-}}":5391,"Ġ\\\\{":5392,"),...,":5393,"Ġ{\\|":5394,"\\,,\\\\\\":5395,"\\|+":5396,"[\\,\\":5397,")}\\}":5398,")}\\|_":5399,"ĠIII":5400,"}|}{|":5401,"Ġ)^{(":5402,")\\\\-":5403,")\\,:\\,":5404,"super":5405,"_*.":5406,"):=\\{\\":5407,"_{+}^{\\":5408,"=-(\\":5409,"}&=&\\":5410,"}:=(\\":5411,"')_":5412,"))}+":5413,"400":5414,"Ct":5415,"Mt":5416,"Sx":5417,"UD":5418,"XA":5419,"\\,\\,\\,\\,":5420,"]}_{\\":5421,"jD":5422,"qA":5423,"qd":5424,"wr":5425,"|})":5426,"|)}{":5427,"}!}\\":5428,"Ġ~~~~~~~~":5429,"Ġloc":5430,"^{~\\":5431,"}\\{(":5432,"make":5433,"ight":5434,"}}}_{\\":5435,"}}}}{\\":5436,"}))+":5437,"Ġ22":5438,"))>":5439,")):=\\":5440,"^*}.":5441,"\\,=\\":5442,"\\|_{(":5443,"Ġ{}\\":5444,"Ġprob":5445,"adj":5446,"ĠCt":5447,"ĠSt":5448,"~~{\\":5449,"Ġ_{|":5450,"orb":5451,"Ġ)}}":5452,")|&=\\":5453,"}}(|":5454,")^{\\!":5455,"unction":5456,"^++\\":5457,"]\\;,":5458,"''}{\\":5459,")})}{":5460,"shape":5461,"_{+}+":5462,"_{[<\\":5463,"}')\\":5464,"231":5465,"Ġthen":5466,")$}.":5467,"}_*(":5468,")~~~.":5469,"AF":5470,"Cr":5471,"EF":5472,"HH":5473,"Nm":5474,"Px":5475,"Ran":5476,"VV":5477,"]],":5478,"bcd":5479,"dj":5480,"hp":5481,"pert":5482,"qk":5483,"qm":5484,"sX":5485,"tF":5486,"xI":5487,"{}~":5488,"Ġ\\}=\\":5489,"_{}}":5490,",\\\\|":5491,"}}}},":5492,"})]=":5493,")}],":5494,"}}\\}":5495,"Ġ256":5496,"^*|^":5497,"^*:=\\":5498,"^*)-\\":5499,"\\,,\\,\\":5500,"&\\;":5501,")-[":5502,"}|_\\":5503,",\\\\{\\":5504,"_{-}^":5505,"^+}^{\\":5506,"Ġ\\\\&<":5507,"):=-":5508,")|\\\\&":5509,"Ġ]^":5510,"Ġ\\:.":5511,"}^{+},":5512,")}+\\|\\":5513,"Ġorder":5514,"Ġ\\;\\;\\;\\":5515,"^{++}_{":5516,"makebox":5517,"$})":5518,"&~":5519,"&\\,":5520,"':=\\":5521,"))}^":5522,";-\\":5523,">}":5524,"KR":5525,"MP":5526,"QP":5527,"Qu":5528,"Sub":5529,"TF":5530,"]}}{":5531,"];\\":5532,"aE":5533,"lds":5534,"qv":5535,"sds":5536,"we":5537,"Ġ}),":5538,"Ġ\\}.\\":5539,"_{=":5540,"(\\!\\":5541,"}})}{\\":5542,"}}}\\|":5543,"})}^{\\":5544,"})}}{\\":5545,"lob":5546,"}_*\\":5547,"lllll":5548,")^*}\\":5549,"Ġ29":5550,"}^{\\,\\":5551,"Ġ\\,-\\,":5552,"^*)+":5553,"\\,-\\,":5554,"\\|[":5555,":=[":5556,"proj":5557,"ĠDv":5558,"ĠEnd":5559,"Ġ\\{-\\":5560,"^+)=":5561,"}])\\":5562,"Ġ45":5563,"}),~":5564,"^{*}=":5565,"~~~~~~~":5566,"^{+})":5567,"]+[\\":5568,"normalsize":5569,"}_{-}\\":5570,"}_+}":5571,"izx":5572,"_{*})":5573,"{}{}":5574,"constant":5575,"Ġ={}&":5576,"]_<^":5577,"++":5578,"-{{":5579,".)":5580,"62":5581,"Cf":5582,"Eq":5583,"Kr":5584,"MR":5585,"PU":5586,"TU":5587,"]})\\":5588,"mV":5589,"tN":5590,"tV":5591,"wv":5592,"~|~":5593,"{\\#\\":5594,"Ġ=[\\":5595,"}}-(":5596,"}}...":5597,"}))-\\":5598,"vartriangle":5599,"lack":5600,"Ġuni":5601,"\\\\*":5602,"^{({\\":5603,")([":5604,")}\\|^":5605,"rcll":5606,"}\\,,\\\\":5607,"Ġ)}^{":5608,")|(":5609,")|&=":5610,"_{-}^{-":5611,"_+)^":5612,")]\\,":5613,"})={":5614,"Ġ[\\![":5615,"Ġord":5616,"^{(+)}_":5617,"strut":5618,"&>":5619,"'),\\":5620,"'}]":5621,"')(\\":5622,"))^{-\\":5623,"*_":5624,"07":5625,"216":5626,"<-\\":5627,"Bf":5628,"MG":5629,"MH":5630,"Span":5631,"\\}=-":5632,"\\,\\,\\,\\,\\":5633,"]^+":5634,"bm":5635,"high":5636,"kV":5637,"nI":5638,"pM":5639,"sI":5640,"sj":5641,"Ġge":5642,"Ġ\\}_":5643,"Ġ\\},\\":5644,"}\\!\\!\\!":5645,"}}:\\":5646,"}}||":5647,"}_{=":5648,"}_{}":5649,"Ġap":5650,"}=(-\\":5651,"Ġ|-":5652,"Ġ|}\\":5653,"Ġ}}^{":5654,"}}{-":5655,"ĠXY":5656,"Ġsta":5657,"})\\|\\":5658,"Ġ=\\,\\":5659,")\\,,\\\\":5660,"upper":5661,"}\\\\-\\":5662,"}]]":5663,"|_{{\\":5664,"''.":5665,"brane":5666,")&=[":5667,"Ġ_{\\{":5668,"Ġ\\\\&=-\\":5669,"{{}={":5670,"ility":5671,"}}+{":5672,"}&=\\{":5673,"Ġ72":5674,"^{'}_":5675,"hfil":5676,"corner":5677,"formly":5678,"!(\\":5679,"+}\\,":5680,".}(":5681,">^{":5682,"BP":5683,"Bt":5684,"CE":5685,"HT":5686,"Ke":5687,"Nw":5688,"QR":5689,"\\_":5690,"\\&=":5691,"]|^":5692,"],\\\\&":5693,"bX":5694,"mH":5695,"rJ":5696,"|)\\,":5697,"Ġvar":5698,"Ġ}).":5699,"Ġ=~&":5700,"den":5701,"}})_":5702,"}))+\\":5703,"^{-}(\\":5704,"Ġ\\\\+\\":5705,"hor":5706,"Ġuu":5707,"^*\\\\":5708,"\\,)":5709,"Ġbu":5710,"Ġsol":5711,"})\\|_":5712,"Ġ\\;|\\;":5713,")|<":5714,"upshape":5715,"}^{-},":5716,"_+)\\":5717,")!^":5718,"')^\\":5719,"_{+}=":5720,"\\;=\\;\\":5721,"\\\\&=-":5722,")\\|.":5723,"}_{-}(":5724,",....":5725,")}/{":5726,"6263716633":5727,"')_{":5728,":{\\":5729,"BPS":5730,"DW":5731,"FA":5732,"Ku":5733,"PL":5734,"SG":5735,"\\-":5736,"]}}\\":5737,"]}\\,":5738,"bw":5739,"black":5740,"cw":5741,"gB":5742,"hm":5743,"jN":5744,"kS":5745,"mT":5746,"xQ":5747,"}~~~,":5748,"Ġta":5749,"Ġ)}.":5750,"Ġ'}":5751,"Ġroot":5752,"_{}^":5753,"ink":5754,"Ġ=-(":5755,"}^{^{\\":5756,"}})\\,":5757,")}_{-":5758,"},{{\\":5759,"Ġxz":5760,"nge":5761,"}(\\|\\":5762,"Ġ\\,=":5763,"app":5764,"^*})":5765,"^*}-":5766,"ĠAy":5767,"\\|)":5768,"\\|&\\":5769,"Ġ&=(-":5770,"Ġ|{":5771,"Ġ||_{":5772,"ĠCN":5773,"Ġrs":5774,"Ġ.\\\\":5775,"Ġ_{+}":5776,"}|)\\":5777,"}||_":5778,")\\,|":5779,")\\,(\\":5780,"}}(|\\":5781,"^+)^{":5782,"''+(":5783,"}[[":5784,"'_*":5785,"_*+\\":5786,"_*)(":5787,"_-^{":5788,"dydx":5789,"Ġ~-~":5790,"]}|\\":5791,"):={\\":5792,"};{\\":5793,")^*=\\":5794,"}}-{":5795,"})}{(\\":5796,")\\;=\\;\\":5797,"}\\\\&-":5798,"}\\\\&-\\":5799,")~{\\":5800,")~=~\\":5801,"nkn":5802,"}_{+},":5803,"199":5804,"Ġcont":5805,"@{\\,}":5806,"âĢĲ\\":5807,"center":5808,"!.":5809,"&+\\":5810,"'t":5811,"+},":5812,",_{":5813,"--":5814,"-_":5815,"-}^{\\":5816,".)\\":5817,"512":5818,";[":5819,"=({\\":5820,">_\\":5821,"MT":5822,"NW":5823,"Nc":5824,"OMA":5825,"dI":5826,"kF":5827,"nV":5828,"og":5829,"pg":5830,"qi":5831,"uh":5832,"xdx":5833,"zm":5834,"~+~":5835,"_{<\\":5836,"sitive":5837,"})}_{\\":5838,"}),\\,":5839,"})<\\":5840,"}),\\\\&":5841,")}]\\":5842,"Ġ\\\\*":5843,").(":5844,"}^{\\;":5845,"}=|\\":5846,"ĠAi":5847,"&\\,\\":5848,"Ġgx":5849,"Ġ|[":5850,"ĠTf":5851,"ĠPx":5852,"ĠHess":5853,"\\{\\|\\":5854,"_+-\\":5855,"_+}{\\":5856,"_+^{(":5857,"\\|_{{\\":5858,"}},{":5859,"Ġ\\\\&>":5860,"Ġdxds":5861,"Ġ^{(\\":5862,"^-).":5863,"_*+":5864,")})+":5865,"^{*}+":5866,"]={":5867,"]={\\":5868,"{||\\":5869,"}}_{[":5870,"Ġ\\\\&=-":5871,"145":5872,"dudv":5873,"Ġ)\\;":5874,"}}}{(\\":5875,"}^+}\\":5876,"^{{'":5877,"))\\\\=&":5878,"truecm":5879,"'\\|_{":5880,"'|}":5881,"*,":5882,",*}":5883,"CX":5884,"FD":5885,"MF":5886,"MO":5887,"Mat":5888,"NF":5889,"PNC":5890,"SW":5891,"TW":5892,"Tz":5893,"VW":5894,"Xf":5895,"aQ":5896,"dddot":5897,"fin":5898,"hB":5899,"jQ":5900,"jY":5901,"pL":5902,"sph":5903,"ular":5904,"vy":5905,"ye":5906,"zF":5907,"|)=\\":5908,"|}}{\\":5909,"Ġ}=-":5910,"Ġrad":5911,"mand":5912,"lem":5913,"Ġ=|\\":5914,")\\:\\":5915,"}^{'":5916,"}))-":5917,"},|":5918,"abs":5919,"Ġgf":5920,"Ġsc":5921,"Ġ[|":5922,"Ġ[\\,":5923,"})\\},":5924,"}-\\{":5925,"Ġ\\;(":5926,"^+(-":5927,"''_\\":5928,"dic":5929,")]-\\":5930,"^-+\\":5931,"_*,\\":5932,"_-.":5933,")!\\,":5934,")})^{(":5935,"')|\\":5936,"\\|\\,":5937,")\\\\&=(\\":5938,"}}+{{":5939,")=-{\\":5940,"Ġ*_":5941,"}^{*},":5942,"Ġdvol":5943,"]}{[":5944,"conv":5945,"}~~.":5946,"^{(+)}":5947,"\\}+\\{":5948,"Ġsech":5949,"_{\\#}^":5950,"']\\":5951,"')},":5952,"'})(":5953,")'=":5954,".+\\":5955,"=(-\\":5956,"DU":5957,"Hf":5958,"LS":5959,"VR":5960,"VU":5961,"WP":5962,"XB":5963,"\\}|.":5964,"]!":5965,"aB":5966,"aV":5967,"gw":5968,"kI":5969,"lin":5970,"ud":5971,"xG":5972,"{]}^{":5973,"|.\\":5974,"Ġ})^{":5975,"Ġ).\\":5976,"^{}\\":5977,"inst":5978,"}(-(":5979,"}}|^{":5980,"})(-":5981,"})]_{":5982,"+\\{":5983,"^{\\;":5984,"^{--":5985,"mathbin":5986,"},..,":5987,"),-\\":5988,"\\\\$":5989,"rom":5990,"}}\\:":5991,"^{(_":5992,"Ġ\\,|":5993,"))'":5994,")),\\\\\\":5995,"^*}+":5996,"ĠAC":5997,"ĠAf":5998,"Ġpoint":5999,")}\\!":6000,"Ġcy":6001,"Ġren":6002,")|-|":6003,"_{-},\\":6004,"^+-\\":6005,"}[|\\":6006,"{-{\\":6007,"')).":6008,"^{*}-":6009,"236":6010,"\\}})":6011,"klm":6012,"}}\\,(":6013,")=-(\\":6014,",\\,\\,\\,\\,\\":6015,"clic":6016,"~,~~~":6017,"XYZ":6018,"480":6019,":\\:\\:\\:\\":6020,"pos":6021,"two":6022,"command":6023,"!}(\\":6024,"'):=\\":6025,"93":6026,";&":6027,"Lv":6028,"SY":6029,"]+(":6030,"hX":6031,"ick":6032,"kG":6033,"nJ":6034,"pX":6035,"ua":6036,"url":6037,"{)}\\":6038,"Ġsum":6039,"}\\}_":6040,"}^{~\\":6041,"}}}|":6042,"}){":6043,"}))\\,":6044,"Ġ\\\\|\\":6045,"|\\}":6046,"Ġfunction":6047,"}={{":6048,"Ġ\\,)":6049,"ĠAP":6050,"\\|^\\":6051,"Ġcx":6052,"pace":6053,"ĠLB":6054,"})\\!":6055,"}^{({\\":6056,"Ġ)]":6057,"Ġ)&=":6058,"dxd":6059,")|>\\":6060,"}}([":6061,"_{-}}\\":6062,"\\|_{{":6063,"\\,\\|":6064,")!(\\":6065,"^{*}.":6066,"\\},&":6067,"tors":6068,"):=&":6069,"_{++}":6070,"\\}\\;.":6071,"}}=\\|":6072,"||(":6073,"}/(\\":6074,"Ġ]^{":6075,"mnpq":6076,"}}}{{{":6077,"|\\,|":6078,"Ġ\\!=\\!":6079,",\\,\\,\\,\\,\\,\\":6080,"Ġ:=\\{":6081,";\\;\\;\\;\\;\\":6082,")=&-\\":6083,"_{**":6084,"{}{=}":6085,"\\#\\{":6086,"lower":6087,"bigtriangledown":6088,"newcommand":6089,"Diam":6090,"#\\{\\":6091,"$}_":6092,"&+":6093,"&\\\\\\":6094,"')}.":6095,"'})}":6096,"864":6097,":-":6098,">(":6099,"AQ":6100,"Bv":6101,"EM":6102,"Fix":6103,"GB":6104,"JT":6105,"Lt":6106,"NX":6107,"RG":6108,"Sa":6109,"\\}}_":6110,"]|\\":6111,"])}\\":6112,"gH":6113,"gk":6114,"gp":6115,"glob":6116,"hb":6117,"jK":6118,"mA":6119,"sB":6120,"tM":6121,"tQ":6122,"~[":6123,"Ġtimes":6124,"_{/":6125,"})}{|":6126,"err":6127,"}{\\#":6128,"}_{*}":6129,")=&-":6130,"}}\\;,":6131,"Ġaa":6132,"Ġ\\,[":6133,"^*)^\\":6134,"Ġ,}":6135,")((\\":6136,"Ġcn":6137,")+[":6138,")+|\\":6139,"}\\,|\\":6140,":=\\:":6141,"Ġ\\|{\\":6142,"\\}&\\":6143,"^+),":6144,"}]\\\\":6145,"Ġ\\\\&(":6146,")]^\\":6147,")]=[":6148,"Ġ43":6149,"^-+":6150,"_*=\\":6151,")!}(":6152,")})^\\":6153,"}&{\\":6154,")}}-\\":6155,"}\\|.":6156,")}=&\\":6157,"Ġ}{}^{\\":6158,"iodic":6159,"ikl":6160,"}'.":6161,")&&":6162,")}+{\\":6163,"}},\\;":6164,"}<+\\":6165,"}\\\\&=-\\":6166,"Ġ96":6167,")$,":6168,"avg":6169,"Ġinteger":6170,"raisebox":6171,"'^*":6172,"',\\\\":6173,"'\\,\\":6174,"(*":6175,"(.,":6176,")~~\\":6177,"06":6178,"456":6179,"Ar":6180,"As":6181,"Dt":6182,"GH":6183,"HG":6184,"KS":6185,"Nk":6186,"Ns":6187,"]^*":6188,"]]=":6189,"aI":6190,"crea":6191,"gz":6192,"hA":6193,"ither":6194,"jE":6195,"jH":6196,"kH":6197,"mB":6198,"os":6199,"ov":6200,"pQ":6201,"rR":6202,"xR":6203,"xU":6204,"|)}\\":6205,"Ġlim":6206,"Ġ}.\\":6207,"_{_{(":6208,"matter":6209,"inu":6210,"}{=":6211,"}{{(":6212,"art":6213,"}))}{":6214,"})]_":6215,"lose":6216,"^{-})":6217,"^{-}_{\\":6218,"}{\\}}{":6219,"},&&":6220,"}_{_{":6221,"\\\\|":6222,"Ġfixed":6223,"Ġ\\,,\\\\":6224,"Ġ(\\|\\":6225,")))^{":6226,"))|_{":6227,"Ġno":6228,"^*:":6229,"Ġkl":6230,")-|\\":6231,"ĠPro":6232,"textmd":6233,"biggm":6234,"Ġ_{,":6235,"}|=|":6236,"dtdx":6237,"}\\\\=":6238,"}{((":6239,"}]},":6240,"ces":6241,"renewcommand":6242,"displaybreak":6243,"Ġ,\\;\\;":6244,"_*=":6245,"_-)^":6246,"_-^{(":6247,")!}}":6248,"168":6249,"]=\\{":6250,"}}+\\|":6251,"Ġ60":6252,"250":6253,"ctu":6254,"}_{+}(":6255,"^{(-)}_{":6256,"prot":6257,"{\\{}{\\}}{":6258,")_*(":6259,"ADM":6260,"$}^{":6261,"'}{(":6262,"'}}(\\":6263,"'|}{":6264,"/|\\":6265,"Bmatrix":6266,"Cs":6267,"ER":6268,"Ef":6269,"HK":6270,"Hor":6271,"IN":6272,"PC":6273,"[(-":6274,"\\/":6275,"\\}(\\":6276,"\\}}(\\":6277,"\\}}=\\":6278,"jP":6279,"qe":6280,"rve":6281,"sH":6282,"terms":6283,"xm":6284,"ying":6285,"zh":6286,"zs":6287,"|}{(":6288,"Ġ\\/":6289,"_{||":6290,"}\\}}(":6291,"}})}.":6292,"}}].":6293,"}},\\\\&":6294,"varLambda":6295,"}_{~":6296,"Ġdo":6297,"|\\;\\":6298,"),|":6299,"}.}":6300,"Ġty":6301,"Ġiu":6302,"}+[\\":6303,"))]\\":6304,"\\|{":6305,"Ġ,(":6306,"Ġ&=[":6307,"Ġ&=|":6308,"}}{}":6309,")}\\}.":6310,"Ġhas":6311,"ĠSINR":6312,"})\\;,":6313,"~~}":6314,"}\\,^{":6315,"}|>":6316,"}|-|":6317,")|&":6318,",\\\\|\\":6319,"]\\},":6320,"}]}{":6321,"}]}{\\":6322,"''},":6323,"'').":6324,"^-)=":6325,"(((":6326,"Ġ]+":6327,"bulk":6328,"\\!}\\":6329,"}^{+}_{":6330,";\\;\\;\\;\\;\\;\\":6331,"}^{*}_{":6332,")<+\\":6333,"Ġtrue":6334,"\\},\\\\&\\":6335,"})\\\\&+":6336,"^\\#(":6337,"soft":6338,"MSE":6339,"euc":6340,"protect":6341,"&.\\":6342,"'m":6343,"'}},":6344,"'=-":6345,"+}^{":6346,"91":6347,":|\\":6348,"AH":6349,"BX":6350,"DV":6351,"DX":6352,"EH":6353,"GG":6354,"IK":6355,"NE":6356,"RP":6357,"Supp":6358,"Tor":6359,"]~.":6360,"_(":6361,"aS":6362,"bL":6363,"nY":6364,"off":6365,"scal":6366,"zT":6367,"~\\,":6368,"igarrow":6369,"_{\\{-":6370,"rightsqu":6371,")\\},\\":6372,"=\\,\\,":6373,"lass":6374,"Ġ\\\\\\{":6375,"|\\|":6376,")=(-\\":6377,")^*}":6378,"rit":6379,"Ġfinite":6380,"}}\\}.":6381,")=\\\\&\\":6382,"Ġip":6383,"^*\\,":6384,"ĠAA":6385,"expan":6386,"ton":6387,"Ġvec":6388,"[\\|\\":6389,"Ġ}_\\":6390,"}}{=":6391,"Ġrj":6392,"ĠLf":6393,"1213":6394,"}\\,+\\,":6395,"&=\\{(":6396,":=\\;":6397,")\\\\=\\":6398,")}(|":6399,"(-(\\":6400,")|},":6401,"minimize":6402,"^+).":6403,"Ġ|\\;":6404,"}},~":6405,"}),(\\":6406,"],[\\":6407,"1010":6408,")!!}{":6409,"}}^{}":6410,"^{**}":6411,"}^*)\\":6412,"Ġ}{{\\":6413,"\\}\\;":6414,"}'-":6415,"emma":6416,"Ġ\\:,":6417,"Ġ56":6418,"Ġ\\,\\,,":6419,")\\|,":6420,"}^+.":6421,"|,|\\":6422,"Ġ~~{\\":6423,"_{*,":6424,"^{(-)}":6425,"}*(":6426,"]=[[":6427,"^{\\#}(":6428,"alent":6429,"Ġ}(-{\\":6430,"creasing":6431,"rightsquigarrow":6432,"'|+":6433,")'_":6434,")~~,":6435,"720":6436,":.":6437,"Area":6438,"Diag":6439,"EA":6440,"Iu":6441,"Law":6442,"OS":6443,"SN":6444,"XV":6445,"]_+":6446,"]].":6447,"_=":6448,"aH":6449,"bT":6450,"ddagger":6451,"gb":6452,"vA":6453,"|)|":6454,"|&=|":6455,"Ġph":6456,"Ġsup":6457,"Ġ'\\":6458,"Ġ)^*":6459,"Ġ!}\\":6460,"Ġ\\}\\\\":6461,"^{},":6462,"}{^":6463,"}},\\,":6464,"})|}":6465,"})]=\\":6466,")})\\\\":6467,"}_{<":6468,")=((":6469,"nume":6470,"hich":6471,"ability":6472,"ĠeA":6473,"Ġiq":6474,"}+{{":6475,"))[":6476,"))^{(":6477,"^*}=":6478,"Ġ{-\\":6479,"Ġzero":6480,")}\\}_{":6481,"ĠCr":6482,")}{-\\":6483,"}\\,}^{-":6484,"Ġ)/":6485,"Ġ)|":6486,"Ġ\\{{\\":6487,"_{-}+":6488,"^+}{\\":6489,"Ġ^{{":6490,"^-}^{\\":6491,"105":6492,"{-{":6493,")}_{[":6494,"^{*}}(":6495,"{|(":6496,"'}|\\":6497,"221":6498,"char":6499,"Ġ]_":6500,"245":6501,"scr":6502,")\\;,\\":6503,"&&\\\\":6504,"~,~~~~":6505,"}^-,":6506,"yyy":6507,"prin":6508,"}_*(\\":6509,"llllll":6510,"576":6511,"}|=|\\":6512,"circlearrowleft":6513,"grav":6514,"CFT":6515,"\\!\\!\\!/":6516,"Diamond":6517,"(&":6518,"+}(\\":6519,",-(":6520,".},":6521,"432":6522,":(\\":6523,":~\\":6524,"Cc":6525,"ED":6526,"FT":6527,"Hx":6528,"JA":6529,"JB":6530,"ND":6531,"Nn":6532,"Qf":6533,"Xg":6534,"YY":6535,"[\\|":6536,"[]{":6537,"])+\\":6538,"aF":6539,"fix":6540,"hy":6541,"mK":6542,"qV":6543,"rst":6544,"tE":6545,"wb":6546,"xn":6547,"{>":6548,"{}(":6549,"{~~":6550,"}~~~.":6551,"~-":6552,"~.\\":6553,"Ġ')":6554,"Ġ}}(\\":6555,"Ġ)}(\\":6556,"Ġ\\,\\,\\,\\,\\,":6557,"^{>":6558,"(\\{(":6559,")\\{\\":6560,")\\,\\,\\":6561,"}^{'}_{":6562,"}}^*\\":6563,"dafter":6564,"}))^{\\":6565,"})((":6566,"}_{~\\":6567,")^+\\":6568,"roman":6569,")=\\,\\":6570,"Ġed":6571,"));":6572,")))\\\\":6573,"^*)}{":6574,"^*)^{\\":6575,"&\\|\\":6576,")}\\{":6577,"ĠCS":6578,"Ġspan":6579,"Ġqp":6580,"Ġhe":6581,"ĠVu":6582,"),\\,\\,\\,\\,":6583,"}-\\|":6584,"}^{(-\\":6585,"}|}.":6586,")\\,.\\":6587,"updownarrow":6588,"\\}}^{":6589,"ĠJe":6590,"_{-(\\":6591,"_{-}}{\\":6592,"Ġ37":6593,"}),&":6594,"^-}^{":6595,"_*\\|^":6596,")!!}{(":6597,"}}=(-":6598,"Ġ}{|\\":6599,"1313":6600,"})}&\\":6601,")&-\\":6602,"2323":6603,"}~=~\\":6604,"1432":6605,"Ġ\\{\\{":6606,"}}\\,{\\":6607,")\\\\&<":6608,"Ġ54":6609,")}-{\\":6610,"}_{+}^":6611,"}_{+}}\\":6612,"}''(\\":6613,"))\\\\=&\\":6614,"Ġ~~~~\\":6615,"$,}\\;\\;":6616,"Ġcov":6617,")...(":6618,"Ġpositive":6619,"uppercase":6620,"expandafter":6621,"numeral":6622,"romannumeral":6623,"')}(":6624,"')&=":6625,"=((":6626,"AS":6627,"BW":6628,"DS":6629,"EP":6630,"In":6631,"WW":6632,"XU":6633,"cite":6634,"kU":6635,"pT":6636,"qR":6637,"qX":6638,"qrr":6639,"vrule":6640,"wy":6641,"xk":6642,"yg":6643,"{^\\":6644,"{{(":6645,"Ġ}}_{":6646,"Ġ}\\,.":6647,"Ġ\\>\\":6648,"time":6649,")\\}^":6650,"des":6651,"}})]":6652,"}}}}.":6653,"}})^\\":6654,"}}_{\\{":6655,"Ġ+&":6656,"Ġxu":6657,"Ġ\\\\\\|":6658,"}_+(\\":6659,"|\\!\\":6660,"),~~\\":6661,"abq":6662,"}}\\{\\":6663,"}}\\,\\,":6664,"Ġtri":6665,"Ġ\\,:=\\,":6666,"\\|}_":6667,")}\\;\\":6668,")}\\;,":6669,"ĠCD":6670,"Ġ.}":6671,"ĠBC":6672,"Ġmc":6673,"}||^{":6674,"}|}{|\\":6675,"Ġ\\|.":6676,")|&=|":6677,"ĠKu":6678,"\\}>":6679,"_{((":6680,"_{-}=\\":6681,"Ġ}\\|":6682,"Ġ35":6683,"spin":6684,")})_":6685,"}&(\\":6686,"^{**}(":6687,"})^{*}":6688,"}^*-":6689,"_{+}=\\":6690,")}=\\|":6691,"235":6692,"longleftarrow":6693,")\\\\&>":6694,"Ġ&&\\\\":6695,")>(":6696,"ian":6697,"}^{*})^{":6698,"}$,":6699,"}_+.":6700,"}\\!=\\!":6701,"^{(-)}_":6702,"!\\!\\!\\!\\!\\!\\!\\!\\":6703,"}~~,":6704,"Ġcosh":6705,"CPF":6706,",*}_{":6707,"&*\\\\":6708,"inuous":6709,"cture":6710,"!}\\,\\":6711,"$;":6712,"')}_{":6713,"-))":6714,"213":6715,"71":6716,";~":6717,";~~":6718,"CK":6719,"Dh":6720,"DTE":6721,"Gen":6722,"IL":6723,"Md":6724,"[.":6725,"\\})+\\":6726,"])-":6727,"]}},":6728,"]~,":6729,"aR":6730,"jS":6731,"rP":6732,"|}-\\":6733,"|)}{\\":6734,"|}|\\":6735,"Ġ*}":6736,"Ġ\\:\\:\\":6737,"ran":6738,"}\\,\\,\\,\\":6739,"{\\{}":6740,"Ġ=:\\":6741,"lefteqn":6742,"}}}\\,\\":6743,"}))}\\":6744,"})|.":6745,"})~.":6746,"Ġxe":6747,"),&&":6748,"llcorner":6749,")=\\,":6750,")=\\|\\":6751,"sqsubset":6752,"ĠtX":6753,"Ġib":6754,"))].":6755,"\\,;\\":6756,"\\,:\\,\\":6757,"\\|}_{":6758,"Ġ{{{":6759,"Ġ&=:":6760,"Ġkt":6761,"Ġ};":6762,"&={\\":6763,"&=(-":6764,"ĠCa":6765,"ĠCf":6766,"Ġsx":6767,"ĠBx":6768,"ĠRm":6769,"Ġmo":6770,"Ġ\\;+\\;":6771,")\\,[":6772,"\\}&=\\":6773,"^+|":6774,"^-),":6775,"'):=":6776,"...<":6777,"}\\|=":6778,"}^*}\\":6779,"Ġone":6780,"};\\\\\\":6781,"_{[-\\":6782,"~~~~~~\\":6783,"}'-\\":6784,"Ġ](":6785,"Ġ120":6786,"}:=\\{(":6787,"kly":6788,"iiint":6789,"Ġinde":6790,"Ġ50":6791,"Ġ52":6792,"Ġ&&&&":6793,"ensure":6794,")^{(|":6795,"}>=\\":6796,"ield":6797,"}^-}":6798,"360":6799,"Ġ~~~~~~":6800,"head":6801,"Ġres":6802,"384":6803,"eakly":6804,"ensuremath":6805,"$}}\\":6806,"+||":6807,">+\\":6808,"Arg":6809,"Fl":6810,"HL":6811,"LG":6812,"Nq":6813,"UW":6814,"We":6815,"cV":6816,"eH":6817,"fX":6818,"iij":6819,"mD":6820,"mE":6821,"nU":6822,"oo":6823,"pV":6824,"qM":6825,"rX":6826,"uq":6827,"xC":6828,"yL":6829,"zP":6830,"zp":6831,"|}^{\\":6832,"~}\\":6833,"Ġar":6834,"Ġga":6835,"ini":6836,"{\\\\":6837,",\\\\\\\\":6838,"}})\\\\":6839,"}}]=":6840,"})}|":6841,"})({\\":6842,")}|^{":6843,"^{-+}_{":6844,"},~~\\":6845,"Ġ\\\\(-":6846,"hol":6847,"\\\\{\\":6848,"sech":6849,"Ġay":6850,"sqcap":6851,"}^{\\{":6852,"Ġ\\,{":6853,"}+||\\":6854,"^*}}\\":6855,"^*\\|_":6856,"Ġ{=}":6857,"&\\!\\!":6858,"Ġgra":6859,"Ġ}:=\\":6860,"ĠcJ":6861,"ĠPl":6862,"ĠVLC":6863,"),\\,(":6864,"orem":6865,")|:":6866,")|_\\":6867,"minS":6868,"unded":6869,"^+|^":6870,"}^{-}_{":6871,"}]_\\":6872,"diff":6873,")]+[":6874,"spt":6875,"))\\|":6876,"^-)-":6877,"}}^{{":6878,"^{*})\\":6879,")}})\\":6880,"}^*_\\":6881,"_{+},\\":6882,"~~~~&":6883,"\\;(":6884,"136":6885,"}'+\\":6886,"||=":6887,")&\\\\":6888,"+||\\":6889,"})+{\\":6890,"\\!{\\":6891,"}}-{{":6892,"}^{+}=":6893,"pqr":6894,"Ġ}}^\\":6895,"}>=":6896,"}_{-}(\\":6897,"Ġ~~.":6898,"}^{*})":6899,"}^{*}}(":6900,"}_+^{":6901,"XYU":6902,"supsetneq":6903,"tity":6904,"Ġ~~~,":6905,")...\\":6906,"Ġprobability":6907,"dentity":6908,"!)":6909,"!,":6910,"$.":6911,"$}=":6912,"&$":6913,"&:=\\{":6914,"'+(":6915,"))}+\\":6916,"+~\\":6917,"08":6918,"<\\,":6919,"={{\\":6920,">-\\":6921,"Ag":6922,"Ap":6923,"Cm":6924,"Da":6925,"Fr":6926,"HJ":6927,"Int":6928,"JS":6929,"KI":6930,"KP":6931,"LN":6932,"Mas":6933,"RHS":6934,"Sq":6935,"Trace":6936,"Uf":6937,"XH":6938,"YB":6939,"[-(":6940,"])-\\":6941,"^!(":6942,"aZ":6943,"fw":6944,"jC":6945,"kin":6946,"ove":6947,"rB":6948,"sN":6949,"ssi":6950,"tK":6951,"wd":6952,"xr":6953,"{<":6954,"|)=":6955,"|-(":6956,"|)}{|":6957,"Ġ}\\,,":6958,"}\\}\\\\":6959,"}{}\\":6960,"_{\\,\\":6961,"mathord":6962,"}^{'}\\":6963,"}}}\\\\":6964,"}}/\\":6965,"}}}{|":6966,"}}+|":6967,"Ġ&+(":6968,"metri":6969,"Ġ(}":6970,"})_{(":6971,"}))}{\\":6972,"})}\\|":6973,")}*":6974,")};\\":6975,")},\\,":6976,"}^-(\\":6977,"Ġ\\\\.":6978,"Ġfd":6979,"Ġaf":6980,")):=":6981,")))(\\":6982,"^*)}{\\":6983,"\\|^{-":6984,"Ġvv":6985,"Ġpri":6986,")({":6987,"Ġcr":6988,"geqq":6989,"ĠST":6990,"ĠMf":6991,"Ġ-\\!":6992,"Ġ=\\;\\":6993,"textsuper":6994,"ĠNC":6995,"126":6996,"}|&\\":6997,"'(|":6998,"Ġ\\;(\\":6999,")}({":7000,"Ġ&\\|\\":7001,"}]-\\":7002,"}]=(":7003,"_+),":7004,"_+}(\\":7005,"117":7006,"Ġ^{+}\\":7007,"1024":7008,"_-),":7009,"_-).":7010,"}&\\\\":7011,"]=&\\":7012,"}}_{{":7013,"}}=&\\":7014,"Ġ}{(\\":7015,"\\}\\{":7016,"};\\\\&":7017,",-,":7018,"}}=\\{":7019,"ilt":7020,")\\\\&=&":7021,")\\\\&=(-":7022,"}&=(-":7023,"}}+(\\":7024,"=&(\\":7025,")\\,\\,\\,":7026,"}:=-\\":7027,"\\,\\,.":7028,"diamondsuit":7029,"Ġcase":7030,"3214":7031,"mathclap":7032,"Ġuniformly":7033,"textsuperscript":7034,"&:":7035,"'.\\":7036,"']=":7037,")}^{(\\":7038,"+}_":7039,"315":7040,"Ab":7041,"DI":7042,"Dk":7043,"EQ":7044,"ES":7045,"Ht":7046,"Hv":7047,"KT":7048,"Su":7049,"Xe":7050,"ZF":7051,"\\})}":7052,"\\,\\,\\,\\":7053,"])(":7054,"]:\\":7055,"_,":7056,"asu":7057,"cT":7058,"finite":7059,"hw":7060,"kji":7061,"pla":7062,"sol":7063,"tW":7064,"vb":7065,"wu":7066,"wz":7067,"{}&\\":7068,"|})\\":7069,"||^{":7070,"^{''}":7071,"}\\#":7072,"tab":7073,"inimize":7074,"thick":7075,",\\|\\":7076,"}}](":7077,"Ġ&,\\\\":7078,"})~\\":7079,"}))=(":7080,")}>\\":7081,"picture":7082,"ĠdN":7083,"ĠdQ":7084,"),}":7085,"\\\\|\\":7086,"Ġfree":7087,"Ġfrom":7088,"}}\\}\\":7089,"Ġem":7090,"Ġ\\,=\\,\\":7091,"Ġiv":7092,"))<":7093,"^*)(\\":7094,"Ġ{^\\":7095,"ĠCc":7096,"ĠTX":7097,"ĠsT":7098,"Ġslow":7099,"Ġqr":7100,"ĠProb":7101,"ĠSM":7102,"ĠStr":7103,"Ġ[[\\":7104,"Ġ-\\|":7105,"Ġ_{-}":7106,"}|,\\":7107,"}|},":7108,"Ġ\\;:\\;":7109,")}(-\\":7110,"\\}]":7111,"\\}|\\":7112,"}}{\\|\\":7113,"_{-}}{":7114,"}])=":7115,"}]\\,":7116,"_+)}^":7117,"!\\,\\":7118,"^-}^":7119,"Ġ:&=":7120,"}}^{-\\":7121,"}\\,\\|":7122,"):=[":7123,")}=&":7124,"};\\,":7125,"||_\\":7126,")&(":7127,")&+\\":7128,"}\\;,\\":7129,"([(":7130,"142":7131,"):(":7132,"\\!=\\!":7133,"=&-":7134,"}^+)":7135,"}^{*}.":7136,"ieA":7137,"argmin":7138,"_{*}}":7139,"\\::\\:":7140,"_{\\{\\{":7141,")$.}":7142,"curve":7143,")_+,":7144,"}=&~\\":7145,"circled":7146,"]\\!]}":7147,"Ġ\\!\\!\\!\\!":7148,"index":7149,"Ġboundary":7150,"centerdot":7151,"!}+\\":7152,"$}}_":7153,"&,\\":7154,"'=-\\":7155,"*}_":7156,".(\\":7157,".\\\\&":7158,"312":7159,"EE":7160,"FE":7161,"Ff":7162,"GT":7163,"If":7164,"JI":7165,"MQ":7166,"Mx":7167,"NK":7168,"PW":7169,"Po":7170,"Prob":7171,"RA":7172,"Vu":7173,"\\}=-\\":7174,"\\})-":7175,"]}}.":7176,"aY":7177,"cF":7178,"cline":7179,"gV":7180,"iab":7181,"jZ":7182,"rH":7183,"xK":7184,"xc":7185,"{/":7186,"{}=":7187,"_{;\\":7188,"}{}^\\":7189,"{\\!\\!":7190,",\\!":7191,"rightrightarrow":7192,"}}'":7193,"})]^{":7194,"})}\\\\&\\":7195,"+\\;\\":7196,"}_{_":7197,"}_{,\\":7198,"Ġdiff":7199,"host":7200,"}^{\\;\\;":7201,"Ġtrace":7202,"}=&(":7203,")^{*}\\":7204,"linear":7205,"^*||":7206,"\\,,\\\\&":7207,"ĠAut":7208,"Ġ,~":7209,"},\\\\{\\":7210,"Ġ&=&\\":7211,"Ġka":7212,")(|\\":7213,"Ġ}]":7214,":={\\":7215,"Ġbs":7216,"ĠCF":7217,"Ġred":7218,"Ġsh":7219,"Ġsti":7220,"ĠPV":7221,"127":7222,"}\\,+\\,\\":7223,"dsdt":7224,"&=\\|":7225,"ĠGeV":7226,"Ġ):=\\":7227,")|-\\":7228,"Ġ:=(":7229,"Ġ+\\!":7230,"^+]":7231,"^+}(\\":7232,"}^{-{\\":7233,"}]).":7234,"}]}.":7235,"}]=-\\":7236,"'')^":7237,")_-\\":7238,")][\\":7239,")]\\\\&=":7240,")]-[":7241,"Ġlarge":7242,"Ġ(-)^{":7243,"^-|^":7244,"_*^{\\":7245,"^{*}{\\":7246,"]=(\\":7247,"{|}\\":7248,"):=(-":7249,"\\;,\\\\":7250,"),\\\\(\\":7251,")}=\\{":7252,"}')^":7253,"2314":7254,"2341":7255,"\\}}+\\":7256,"140":7257,")\\\\&+(":7258,"})_{*}":7259,")\\;.\\":7260,");(":7261,"act":7262,"347":7263,"}\\\\&=(\\":7264,"}^{*}=":7265,"}_{+}.":7266,"_{*}^":7267,"}''\\":7268,"{}{^\\":7269,"):\\:":7270,"4321":7271,"SIR":7272,"ĠCoeff":7273,"twohead":7274,"rightrightarrows":7275,"!^{":7276,"')/":7277,"'\\|_":7278,"(.":7279,")'+":7280,"4123":7281,"4132":7282,"AE":7283,"Aq":7284,"CZ":7285,"DY":7286,"Dz":7287,"FN":7288,"HC":7289,"Ho":7290,"IS":7291,"Jd":7292,"Lie":7293,"PI":7294,"SB":7295,"UA":7296,"Vec":7297,"\\}\\,\\":7298,"]\\|":7299,"])_{":7300,"],\\;":7301,"_!(":7302,"aU":7303,"fa":7304,"fbox":7305,"lv":7306,"sD":7307,"sP":7308,"use":7309,"ution":7310,"Ġ)=-":7311,"Ġ)\\,.":7312,"Ġsubject":7313,"^{}_{\\":7314,"}\\\\\\\\":7315,"}\\})=\\":7316,"}{@{\\,}":7317,"Ġ=~":7318,")\\;\\;\\;":7319,"=\\,&":7320,"-\\;":7321,"Ġ+}":7322,"muta":7323,")}~.":7324,"varlimsup":7325,"},|\\":7326,"|\\:":7327,"Ġtf":7328,"Ġess":7329,"Ġelement":7330,")^{+":7331,"))))":7332,"\\,+\\":7333,"Ġval":7334,"},\\:":7335,"},\\,\\,\\":7336,"}=\\,\\":7337,"[\\![":7338,"Ġcs":7339,"ĠCH":7340,"ĠCR":7341,"ĠExt":7342,"),\\;\\;\\":7343,"}\\,:\\,":7344,"Ġ_{+}\\":7345,"Ġ\\;\\,":7346,")||_":7347,"ĠUV":7348,"Ġ+\\|\\":7349,"^+}^":7350,"Ġ<+\\":7351,"Ġ}\\;\\":7352,")_{|\\":7353,"}[{":7354,"Ġ,\\,\\,":7355,"_*)^":7356,"',-":7357,"_-}^{":7358,"_-)}":7359,")!!\\":7360,":\\!\\":7361,"'))=":7362,"^{**}\\":7363,")}=(-":7364,"}|\\,":7365,"Ġother":7366,"ikj":7367,"1342":7368,"||}":7369,"}~,~":7370,"}~+~":7371,"}:(":7372,"}:={\\":7373,"|\\,.":7374,"smallfrown":7375,"'=(\\":7376,"3412":7377,"3421":7378,"}\\\\&=-":7379,"\\},\\,":7380,"}$}.":7381,"^{'}+":7382,"560":7383,"{}{=}\\":7384,"dxdydz":7385,"Ġadj":7386,"Ġ_{-}\\":7387,"medspace":7388,"trianglelefteq":7389,"\\}-\\{":7390,"Ġhave":7391,"Ġstiff":7392,"&,\\\\":7393,"'})=\\":7394,"))}-":7395,".~\\":7396,"300":7397,"<|\\":7398,"=+":7399,"FF":7400,"GA":7401,"HV":7402,"IA":7403,"Jy":7404,"KZ":7405,"LX":7406,"Lk":7407,"MK":7408,"NB":7409,"Nv":7410,"Qx":7411,"RO":7412,"Tc":7413,"Ts":7414,"Uv":7415,"Ux":7416,"\\}^\\":7417,"\\})\\\\":7418,"cD":7419,"eb":7420,"pR":7421,"pU":7422,"qU":7423,"rI":7424,"sG":7425,"sL":7426,"|)+\\":7427,"Ġ}}-":7428,"Ġ)\\,,":7429,"Ġ\\},\\\\\\":7430,"^{{(":7431,"}\\{|":7432,"}{]}{":7433,")\\}}\\":7434,")\\!\\!":7435,"}}|_{\\":7436,"Ġ&~~":7437,"}))(\\":7438,"})|_{\\":7439,"})&:=":7440,"Ġ-(-\\":7441,"+\\\\":7442,")}/\\":7443,"Ġxq":7444,"),[\\":7445,"Ġfo":7446,"}}\\},":7447,"Ġtv":7448,"Ġtop":7449,"Ġ\\,;":7450,")))-":7451,"))}},":7452,"ĠAz":7453,"Ġgr":7454,"Ġkm":7455,"&=|\\":7456,")}\\},":7457,")}\\|_{\\":7458,"ĠCM":7459,"ĠHP":7460,"ĠDR":7461,"cont":7462,"ĠInd":7463,"}|)^{":7464,"}|+|\\":7465,"Ġ)&":7466,"Ġ\\;=\\;\\":7467,")\\\\-\\":7468,"Ġ\\|,":7469,"Ġ&\\,\\":7470,")|,\\":7471,")+\\\\&":7472,")^{-{":7473,")}{\\|\\":7474,"univ":7475,"^+}}":7476,"'')=":7477,")]=-":7478,"Ġ$-":7479,"Ġ$[":7480,")/{":7481,"'\\}\\":7482,"dyn":7483,")}_{=":7484,"Ġ~&":7485,"}}^{*}\\":7486,")})^*":7487,"')&=\\":7488,"^{*})^{":7489,"\\},~":7490,"}|\\\\":7491,"_{+}-\\":7492,"_{+}^{(":7493,"),\\\\&(":7494,"2143":7495,"\\\\&+(":7496,"Ġ]_{\\":7497,"Ġ&=\\|":7498,"\\!:\\!":7499,"}}}{|\\":7500,"}^{+}}":7501,"arrowright":7502,"))=\\{":7503,"pqi":7504,")\\|=\\":7505,",&{\\":7506,",&&\\":7507,")}\\\\=&\\":7508,"ijkt":7509,"smallint":7510,"}^{*}}":7511,"{[}{]}{":7512,"}$.}":7513,"\\,\\,,":7514,"ondi":7515,"anti":7516,"960":7517,")_+^{":7518,"))\\\\&=(":7519,"\\|=\\|\\":7520,"Cont":7521,"complement":7522,"#(\\":7523,"&:=(":7524,"'}[":7525,"'})^":7526,"*}\\|":7527,"*{$\\":7528,"+)\\":7529,"-}_{\\":7530,":\\|":7531,">\\,":7532,"CY":7533,"Cd":7534,"Cu":7535,"FX":7536,"Fv":7537,"GP":7538,"HF":7539,"Ki":7540,"LF":7541,"Mp":7542,"OC":7543,"PX":7544,"PZ":7545,"Pa":7546,"RX":7547,"SV":7548,"ZX":7549,"\\}}^":7550,"\\;\\;\\;\\;":7551,"eo":7552,"gK":7553,"hape":7554,"jF":7555,"kE":7556,"nG":7557,"nW":7558,"nZ":7559,"pdx":7560,"rV":7561,"rig":7562,"sat":7563,"sto":7564,"tJ":7565,"uk":7566,"whenever":7567,"xE":7568,"yh":7569,"yk":7570,"yeq":7571,"zb":7572,"|)-":7573,"Ġ_+":7574,"Ġinf":7575,"Ġ)}=":7576,"Ġ)=-\\":7577,"Ġ}}\\,":7578,"rable":7579,"}{_":7580,"Ġ=(-\\":7581,",\\\\{":7582,"}(^{\\":7583,"}}})\\":7584,"Ġ(*":7585,")}]_{":7586,"^{\\{\\":7587,"Ġxyz":7588,"Ġ01":7589,"ĠdC":7590,"endbmatrix":7591,"\\\\{":7592,"bound":7593,"}}\\|^":7594,"Ġae":7595,"Ġav":7596,"Ġ240":7597,"Ġterm":7598,"}={{\\":7599,"^{({":7600,"))~":7601,")))^":7602,"^*_{(":7603,"^*({\\":7604,"\\|)\\":7605,"Ġ{^":7606,"Ġ{{(":7607,"Ġ{}^*":7608,"total":7609,"Ġvu":7610,"},\\;\\;\\":7611,"Ġps":7612,"Ġ|}{":7613,"Ġ}:":7614,"Ġce":7615,")}{{":7616,"ĠBNC":7617,"ĠPD":7618,"ĠSNR":7619,"ĠDS":7620,"ĠDiag":7621,"})\\}\\":7622,"1223":7623,"itshape":7624,"'({\\":7625,"Ġ\\;,\\":7626,"^+)}":7627,"^+)=\\":7628,",\\,|\\":7629,"}]\\\\&=":7630,"idy":7631,"_+)}":7632,"_+)=":7633,")_{(\\":7634,"'')=\\":7635,"Ġdxd":7636,"Ġ31":7637,"Ġ49":7638,"})=[":7639,"))\\|^":7640,"_*[":7641,"_-+\\":7642,"Ġ~^{":7643,"')}}":7644,"')),":7645,"]}:":7646,"}^*)^":7647,"}^*)^{":7648,"\\;|\\;":7649,",\\\\\\\\\\":7650,")&:=\\{":7651,"Ġ/(":7652,"146":7653,"147":7654,"})_{,":7655,"^{[-":7656,",\\\\&(":7657,")}\\,,\\":7658,"}$}\\":7659,"}^{[{\\":7660,"^{'}}":7661,",+}\\":7662,"kew":7663,"post":7664,"\\,{,}":7665,"WZW":7666,"ĠCov":7667,"{*}{":7668,"@{}}{\\":7669,"Ġsatisfies":7670,"blacktriangleright":7671,"urlyeq":7672,"twoheadrightarrow":7673,"!}+":7674,"'$":7675,"'}}.":7676,"'}_\\":7677,"')})":7678,"'}=(":7679,".-":7680,".$\\":7681,"<...<":7682,"AG":7683,"BY":7684,"Bz":7685,"EN":7686,"EX":7687,"Gal":7688,"GUT":7689,"Hh":7690,"Qv":7691,"Ru":7692,"Uparrow":7693,"\\;\\;\\;\\":7694,"]))":7695,"]),\\":7696,"]]\\":7697,"])&=\\":7698,"aff":7699,"bF":7700,"bP":7701,"cA":7702,"cN":7703,"ew":7704,"gL":7705,"jG":7706,"lz":7707,"mC":7708,"pC":7709,"qN":7710,"sF":7711,"son":7712,"tI":7713,"vd":7714,"wa":7715,"xl":7716,"zJ":7717,"zdz":7718,"|;":7719,"Ġ),\\\\":7720,"Ġ}}_":7721,"Ġ}}}\\":7722,"Ġ\\}}\\":7723,"^{,":7724,"raint":7725,"}\\,\\,\\,\\,\\,":7726,"igen":7727,"les":7728,"Ġ=-{":7729,"_{\\:":7730,")\\\\{":7731,")\\},\\\\":7732,"=\\{(\\":7733,"}}}}{{\\":7734,"Ġ((-":7735,"})}}.":7736,"})]^":7737,")}:\\":7738,"Ġxp":7739,"}_{{{":7740,"ĠdG":7741,"|\\{\\":7742,"|\\}}":7743,")=<":7744,"\\\\+":7745,"\\\\\\\\\\":7746,"Ġeq":7747,"Ġ\\,_":7748,"Ġ\\,&=\\":7749,"limit":7750,"ĠiT":7751,"Ġic":7752,"ined":7753,"))<\\":7754,"))-(\\":7755,"^*{\\":7756,"^*&=":7757,"^*}}{":7758,"^*(-":7759,"\\,-":7760,"\\|<\\":7761,"\\|}{\\|":7762,"Ġkr":7763,"&=-(":7764,"pact":7765,"pair":7766,"ĠCC":7767,")}{}_{":7768,"ĠLL":7769,"ĠRF":7770,"ĠRf":7771,"Ġ-\\,\\":7772,"Ġ=\\!":7773,"Ġ=\\|\\":7774,"}\\,)":7775,")||_{\\":7776,"ivalent":7777,"_{-}^{(":7778,",\\,(":7779,"''|":7780,"'''\\":7781,")]\\\\&+":7782,"Ġ38":7783,"rec":7784,"rect":7785,"'_-":7786,"_-}{\\":7787,")!\\,(":7788,":\\;\\":7789,"}&\\|":7790,"')|^":7791,"}\\|=\\":7792,"\\|\\\\":7793,"_{+}}{":7794,"\\}\\},":7795,"Ġ\\\\&=:":7796,"\\;,\\;":7797,"220":7798,")),(":7799,"xxt":7800,"246":7801,"ABR":7802,"})\\\\&=(":7803,",\\\\&[":7804,"}\\\\&<":7805,"}\\\\&+(":7806,"}^+)^":7807,",\\,\\,\\,\\,\\,\\,":7808,"3456":7809,"}$},":7810,"^{*}_\\":7811,"Ġ70":7812,"Ġ90":7813,"^{'}}}\\":7814,"_+\\,":7815,"MNP":7816,"}:\\;":7817,")$},":7818,"}\\,\\,.":7819,"poch":7820,",\\;\\;\\;\\;\\;":7821,")\\!-\\!":7822,"{.}{":7823,")*(":7824,"Ġsinh":7825,"ĠChar":7826,"+&+&":7827,"Ġcontinuous":7828,"Hoch":7829,"'=\\{":7830,"({-":7831,"){{":7832,")~~.":7833,"*}{":7834,",}(":7835,"-}_":7836,"-),":7837,"210":7838,"AN":7839,"Ak":7840,"Bi":7841,"EL":7842,"Err":7843,"FR":7844,"Gx":7845,"JL":7846,"Lh":7847,"Ls":7848,"Ny":7849,"Ps":7850,"Spl":7851,"]'":7852,"]<":7853,"]>":7854,"]|_{":7855,"]})=\\":7856,"aL":7857,"ang":7858,"cZ":7859,"eQ":7860,"ius":7861,"kY":7862,"mic":7863,"sJ":7864,"term":7865,"uc":7866,"Ġ?":7867,"Ġal":7868,"Ġla":7869,"Ġ^+":7870,"Ġ',":7871,"Ġ!}{":7872,"Ġlocal":7873,"Ġalmost":7874,"Ġ\\,\\,\\,\\,\\,\\,":7875,"^{}_\\":7876,"}\\}_{\\":7877,"mag":7878,"ality":7879,"(\\#":7880,"{\\,\\":7881,"}}],":7882,"}}_*":7883,"Ġ({{\\":7884,"})~,":7885,")}]=\\":7886,")}*\\":7887,"^{\\,(":7888,"biguplus":7889,"varia":7890,"},~~~~":7891,"Ġ\\\\\\,":7892,"}_{-(":7893,"}_!\\":7894,"nul":7895,"^*&":7896,"}-[":7897,"Ġvw":7898,"Ġkz":7899,"Ġ}[\\":7900,":=|":7901,"ĠCA":7902,"\\{-(":7903,"ĠBD":7904,"}_{\\!":7905,"ĠLx":7906,"ĠLemma":7907,"}+\\{":7908,"Ġmp":7909,"ĠSx":7910,"ĠDT":7911,"ĠDX":7912,"colu":7913,"{(|\\":7914,"&=\\{\\":7915,"}|-\\":7916,"Ġ){\\":7917,"\\}<\\":7918,"Ġ}\\\\\\":7919,"}]),":7920,"}]_+":7921,"}[-\\":7922,"Ġ^{*}\\":7923,"+(|":7924,"}}^{+\\":7925,")})_{\\":7926,"')'":7927,"ion":7928,"\\;,\\;\\;":7929,")}=\\|\\":7930,"}'_\\":7931,"onal":7932,"248":7933,"}\\;(":7934,"}}\\,,\\":7935,"Ġ;\\,":7936,"}}}{{{\\":7937,"pqj":7938,");\\\\&":7939,"}))}^{":7940,"}\\\\&=(-":7941,")[-":7942,"Ġ=-{\\":7943,"}]=[\\":7944,"^{'}(\\":7945,"]\\\\=&\\":7946,",....,":7947,"{,}\\":7948,"^{\\#}":7949,"Ġstr":7950,"BRST":7951,"graph":7952,"Ġedge":7953,"asurable":7954,"column":7955,"$&$":7956,"&,":7957,"&\\\\&":7958,"')\\\\":7959,"'],":7960,")',":7961,"))}(\\":7962,")'=\\":7963,"*{\\":7964,",<":7965,",*}(":7966,".-\\":7967,":\\\\":7968,"FH":7969,"Frob":7970,"Gf":7971,"IC":7972,"IP":7973,"Ieq":7974,"JN":7975,"KG":7976,"MB":7977,"Mh":7978,"QX":7979,"RN":7980,"SK":7981,"St":7982,"Ve":7983,"Zf":7984,"\\}=(":7985,"\\,\\,\\,\\,\\,":7986,"]}-\\":7987,"]}\\\\":7988,"]~~~,":7989,"]~~~.":7990,"bE":7991,"eL":7992,"iik":7993,"kQ":7994,"lmn":7995,"mF":7996,"mI":7997,"ql":7998,"tR":7999},"merges":["Ġ \\","_ {","^ {","r a","} \\","i g","t a","m a","i n","} {","f ra","fra c","l e","a l","( \\","t h","f t","a r","{ \\","Ġ =","p h","a m",", \\","e ta","ig h","r igh","t i","_{ \\","le ft","righ t","ma th","} (",") \\","d e","} ^{","= \\","} }","Ġ &","- \\","s u","Ġ +","o t","d ot","ph a","al pha","m e","s i","d a","su m","am b","amb da","Ġ (","} )","Ġ -","e r","p si","+ \\","l ambda","ph i","m u","l o",") }","} ^","^{ \\","l ta","am ma","in t","g a","p ar","ti al","par tial","^{ -","}{ \\","c al","_ \\","math b","Ġ Ċ","b ig","v ar","} ,","me ga","l a","b eta","c dot","Ġ x","ig ma","v er","Ġ\\ \\","p i","in ft","inft y","Ġ 0","} _{","lo n","Ġ d","math cal","n d","l de","ti lde","th eta","} _","| \\","g amma","Ġ 1","psi lon","r m","s igma",") =",") ,","e psilon","n g","l l","x i","h o","de lta","ta u","ng le","e g","e nd","b eg","beg in","n u","le q","r ho","o ver","^ \\","a t","h i",") .","} .","Ġ u","b ar","h at","} (\\",") ^","dot s","r i","\\ \\","Ġ f","o mega","a b","g e","b o","r o","mathb b","s e","} }\\",") =\\","Ġ a","s q","e ll","r t","Ġ 2","i m","}^{ \\","sq rt","Ġ t","var phi","B ig","me s","ti mes","} =","ra y","ar ray","Ġ e","^{ (","n ab","nab la","Ġ\\ ,","mathb f","l im",") ^{","D e","Ġ i","De lta","a p","in e","l ine","Ġ {\\","Ġ (\\","q u","} +",") )","Ġ n","^ *","\\ ,","O mega","Ġ A","w i","\\ |","m bo","Ġ {","} -","G amma","e x","wi de","ra ngle","e d","t o","& \\","t ri","Ġ ,","Ġ g","Ġ v","var epsilon","} ,\\","over line","math rm","Ġ p","} =\\","Ġ& =","lo g","Ġ y","Ġ |","Ġ k","la ngle","[ \\","ma tri","matri x",") (","P hi","Ġ }","a d","& =","Ġ z","| ^","} }{",") }\\","Ġ c","cdot s",": =","; \\","s t","qu ad","p a","c hi","Ġ b","Ġ C","ta r","Ġ r","Ġ .",") }{","l dots","Ġ T","\\ {","ge q","Ġ X","Ġ s","o times","p ro","b f","Ġ F","Ġ B","z eta","Ġ q","mbo x",") +","c a",") -","Ġ h","ca se","case s","} _{\\","ro w","Ġ L","Ġ R","} +\\","Ġ P","Ġ H","Ġ m","k ap","kap pa","Ġ S","Ġ D","L ambda","v e","pro d","i j","i t","r c","Ġ [","tar row","p m","Ġ E","} )\\","Ġ M","~ ~","Ġ j","c o","Ġ -\\","se t","wide tilde","righ tarrow","Ġ w","t ex","p ri","pri me","c i","ci rc","Ġ V","{ (","Ġ= \\","ig n","tex t","Ġ N","1 2","ver t","P si","big g","al ign","Ġ I","it s","align ed","lim its",") ,\\","}\\ ,","d s","& =\\","Ġ _{","Ġ G",": =\\","p matrix","} -\\","o r","}^{ (","} |","ve c","Ġ )","}^ \\","' (","Ġ\\ ;","th er","o p",")\\ \\",") }(","^{ -\\","Ġ\\ |",")\\ ,","( -","s in","Ġ& \\","d x",") |","Ġ K","u s","fra k","} }(","e q","m in","ga ther",") +\\","Ġ\\ {","Ġ U","* }","Ġ Q",") ^{-","Ġ :=",". .","wide hat","co s","c ap","ed ge",",\\ \\","w edge","u p","ex p","\\ }","math frak","a st","_{ (","c k","\\ {\\","Ġ+ \\","d t","c c",") ^{\\","Ġ W","su p","} }{\\","Ġ J","o m","er t","V ert","su b","i v","b in","bin om",") }{\\","_{ -","u n","^ +",") -\\","] \\","}\\ \\","de r","S igma","Ġ <",",\\ ,","un der","}^{ -","c up","Ġ |\\","bo l","}{ (","Ġ Y","Ġ }\\",". \\","} ]","Ġ Z","f o","ma x","i d","| _{","ra ll","fo rall","c e","y le","st yle","_ +","l n","! \\","y mbo","ymbo l","ds ymbol","bol dsymbol",") _{","\\| _{","q quad","' '","d i","m id","}} ,","e qu",") _","Ġ\\\\ &","equ iv","Ġd x","Ġ\\\\ \\",") ]","d frac","n eq","Ġ l","Ġ 3",";\\ ;\\","Ġ _","Ġ 4","l us","Ġ O","s p","} [","1 1","| ^{","/ \\","P i","- (","da g","r e","T h","op lus","Th eta","Ġ ^{","b matrix","}} .","s ta",",\\ ,\\","}) ,",")} ,","big l","} _\\","big r","sta ck","\\ }.","}) .","}) =","si m","Ġ >","la y","sp lay","di splay","Ġ( -","display style","text rm",") )\\","] ,","' _","under line","de t","t frac","^ -","sub set","\\ ,\\","lo or","f loor","g er","dag ger","< \\",")} .","b ra","( (","+ (","Ġ :","1 0","Ġ ,\\","Ġ $","in f",") /","{ -","p t","s tar","_ *","s f",") &=",") :=\\",") (\\","' ,","' \\","min us","_ -","] .","d y","( {\\",")} _{","set minus","}} }","{ {\\",") !",": \\","Ġ ~","} }^{","s la",") })","} &","' )","( -\\","^{ *","\\\\ \\",") }}","] =","{ |","bra ce","Ġ ^","}{ |","\\ },",".. .","Ġd t","' }","sub stack","}\\ ,\\","}) =\\","}} (\\","}) ^{","to r","^{ (\\","p er","}} _{","}) ^","n t","}\\ |","] }","bo x","}} =","e ra",") :=","era tor","s h","text bf","am e","Ġ _{\\","op erator","}^ *","\\ |\\",";\\ ;","n ame","operator name","Big r",")} =","} |\\","Ġ }{","per p",")} _","_{ +","Ġ o","i f","Ġ [\\","\\ }\\","i o","Big l","} ;","Ġ\\\\ &=","d im","var theta","~ \\","_{ [","io ta","~~ ~~",") &=\\","= -\\","ve e",", -","\\| ^","\\ ;","{ {","h bar","_{ -\\","1 6","^* (","v dots","i k",") |^","= -","1 3","math sf","Ġ\\ }","}} =\\","}( -","2 2","Ġd s","s s","}) }","},\\ \\","),\\ \\","= (","o d","n ot","}) (",")} =\\","ho o","j k",")= (","h box",")} (\\",") ^\\","} '","}} _","| |","^{ +","Ġa nd","f or","Ġ\\ ,\\","big cup","\\| _","2 1","\\\\ &","Big g","i l",",\\ \\\\","d z","hoo se","c hoose","Ġ ^{\\",") ).","| }","R e","( |","c h","r floor","l floor","* }\\",") |\\","o n","0 0","Ġf or",") ),","} /","{ (\\",") &","^* \\","Ġ\\\\ &\\","sla nt","Ġ ]","a nd","Ġ& =\\","Ġ\\ |\\","} [\\","2 3","a ngle","s pa","+ |","}}{ (","}} ^","var rho","x x",") )=","p s","2 4","l le","\\, .","| _","_{ {\\",")\\\\ &=","}\\ ;","n e","_{ |","\\ }}","re l","b u","' _{","( [","| =","x y","s c","tri angle",") _{\\","to p","Ġ }{\\","bigg r","\\, ,","spa ce","e m","bigg l","! }","} &=","}} }\\","!\\ !\\","} ~","co lon","sin h","stack rel","... ,","d r","Ġd y","} }^{\\","Ġ1 2","ma ps","maps to","Ġ /","cos h","de g","}} )","} :=\\","}) +","k l","( {","le ss","| _{\\","i p","}} +","m p",")= -\\","1 4","] =\\","}} +\\","ta n","under set","less sim",")}{ (","t t","lon g",") :","Ġi f","}= -\\","\\ !","Ġ\\ {\\","}. \\","= &","m n","). \\","' (\\","} |^","}}\\ ,",")\\\\ &","subset eq","X i","}^{ (\\","i i","b a","leq slant","\\\\ &\\","}( {\\","}) _{","d u","{( -","} :","t r","] _","} &\\","Ġ )\\","Ġ ;","^{ [","pro x","lle t","bu llet","}= -","Ġ 6","sla sh","big oplus","Ġ in",")^ *",")\\ ,\\","ap prox","ch e","\\\\ &=",")= -","che ck",", (","/ (","] ^","> \\","over set","| }\\","}) -","ar p","| ^{\\","Ġ }(","}} -","Ġ\\ :","^* _",") )^","' '(",")} +","lim sup","3 2","] _{",", ...,","{ |\\","A B","}) ^{-",")} ^",")^{ -\\","I m","}} ,\\","d dots","\\| _{\\","' }\\","})\\ \\","}) }{","Ġ 5","_{\\ {","~~ ~","}) }\\",")\\ ;","Ġ& &","- |","long rightarrow","sc ri","scri pt",",\\\\ &","] (","}} }{","d v","cc c","2 0","ba ck","[ (","i c","back slash","al l",")+ (",") >","} &=\\","c m","d iv","}= (","Ġ 8","T r","Ġ\\, .","Ġ *","pt y","}^{ +","}\\ |_{","em pty","k er","empty set","e n","ar row","Ġ\\| _{",") )=\\","sh arp","( (\\","} :=",")} }\\","r vert","|\\ ,","m od","1 5","l vert",")\\\\ &\\","o l",")\\\\ &=\\","Ġ all","^{- (","& &","}\\, .","Ġ\\ }.","under brace","m m","c d","_{ (\\",")\\, .",";\\;\\ ;",")} -","Ġ{ {","l brace","}\\ \\\\","Ġd z","Ġ\\, ,","' -",". }","h space","text style",")} +\\","i x",")} }{","p q","Ġ\\ ,\\,","! }\\",") ;",")} ,\\","' }(","var pi",") _\\","}) ^{\\","= &\\",")\\ |_{","}) )","}) +\\","}_{ (","a c","] }\\","d dot",") {\\","Ġ= &","Ġ& :=",")}\\ ,",")\\ |","Ġ( {\\","}\\\\ &","] ^{","ĠT r",", &","] +","' +","| ^{-","}^ +","Ġ{ {\\","ma l","text up",",\\ ;",", {\\","Ġ\\ !","bol d",")} _{\\","Ġ\\ ;\\;","}+ (","' )\\","}} _{\\",")\\, ,",") ~","Ġ }}","] {","}{ (\\",",\\,\\ ,\\,\\","Ġ _\\","ma ll",")}\\ \\","P r","| ,","=\\ ,","^* ,","Ġ :=\\","n or","k ip","Ġd r","Ġ$ \\","me q","si meq","' }{","ij k","nor mal",") ^{(","}} -\\",") }^{","r brace",") &\\","c r","i a","}\\, ,","big cap","}}\\ \\","re f","Ġ. \\","} >","Ġ- (","cc cc","U psilon","s mall","}) }{\\","pm od",") )}","f f","' =","u t","}) ,\\","}{ |\\","text normal","+ (\\","+ |\\","| .","^* _{","\\\\ &=\\","_{ |\\","_+ (","w n","j i","^+ (","2 5","u psilon","3 4","n o","\\ !\\","}\\\\ &\\","' ,\\","* \\","^* )","}) -\\","] )","o wn","_{ {",";\\;\\ ;\\;\\","0 1","Ġ\\ },","}\\ |\\","} <","})\\ ,","k j","Ġ ),",", [","}\\\\ &=","st s","Ġ },",")| ^{","bra ck","{ -\\","in g","lim inf","s kip","& -","d own","}_{ -","Ġ ~~","), (","- (\\","wi th",") [","xi sts","}^{ *","i s","{ [","] }(","Ġd u","}\\ {","R igh","Ġ ^{-","}^{ +\\","Righ tarrow","| }{",")\\ \\\\","Ġ( -\\","( |\\","I I",")- (","b c","n to","^* (\\","c l","- {","\\ },\\","pha nto","phanto m","=\\ {","rc e","i e","= (\\","Ġi s",") )^{",", ~","Ġ( (","co ng","r r",")} -\\","} $",")= (\\","| -","Ġ. ..","1 8",",\\ ,\\,","rce il","} ;\\","a s","e xists","}- (",")! }","{ }","Ġ ).","| (","down arrow","ce il","}| ^{","not in","l ceil","| )","),\\ \\\\","o int","ll l",")) -","}} }{\\","Ġ= -",") <",")) (","at op","_ -(","} '(","^+ _","^{ *}","i math","Ġ= -\\","n k","u v","Ġ\\ ;\\","b ot","=\\ ;","}} )\\","}} |","3 3","left rightarrow","' ^","r s","{ $","i int","}_ +","Ġo n","Ġ th","},\\ \\\\","Ġ }^{","^ -(","- {\\","p re","Ġ\\\\ &=\\","= }","|\\ \\","}( (","}) (\\","Ġ1 0","sq cup","~ ,","~~~~ ~~~~","Ġ+ (","}\\\\ &=\\","| +","r l","Ġ }.","wi se","^+ }","+ {\\","Ġd v","Ġ{ (","] -","tan h","Ġ )^{","b re","ther wise","+ }","rc l","(\\ {","ar g","Ġt r","+ {","}) _","Ġd W","= {","L o","}\\ }","} ]\\","i z","math op",", }","\\ }=","a x","d W","= {\\","}=\\ {","}{ {\\","= ~","Ġ )=","Ġ ^\\",")) +","Ġ= (","!\\ !","n m","Ġ~ \\","3 1","[ -","& (","Ġ )^","\\| _\\","ab c","Ġ| |","script style",", -\\","l Vert","~~ \\","c t",")\\ }","}^{ -\\","Ġ }_{",")) }{","] ,\\",")} |","\\ }}\\","geq slant","er e","}] =","}^{ [","{ }_","Ġ }=\\","Ġ 7","}= {\\",")}{ |",")} )\\","Lo ng","^* }","gather ed","' )^","}^ -","} }^{(","~ .","' _{\\","Ġ )}","pm b","\\{ (","i y","1 7","h skip","Ġ }}\\","Ġ\\ #","}( -\\",",\\\\ &\\","L e","h ere","\\ })","n x","\\ }_{","r Vert","d w","par row","2 7","Ġ }=","X Y","}\\ !","}_{ +",")= {\\","| =\\",")= &","no limits","\\ ,\\,","^ +\\","c ot","| <","Ġ 9","| ^\\","_{ *","Ġ\\; ,","}) _{\\","_{ ,","4 8",")} }{\\","}^{ *}","3 6","] _{\\","} <\\","^{ '",")| _{","Ġ& +","Ġ1 6","Ġ&= &","d f",")\\ |^","Ġ ,\\\\","}) }.","u parrow","12 3","Ġ< \\","pre c","bre ve","Le ft","d X","Ġ\\; .","_ +\\","ar e","}( [","Ġo f","g g","| |\\","pa ra","_* (","eq q","o nd","1 9","5 6","}| _{","eq ref","[ {\\","la t","* {","g h","] ^{\\","small matrix","} /\\","lle l","I J","(\\ |","para llel","di am","Ġ| ^","}) |","Left rightarrow",") ]\\","w p",")^{ |","}{ {","}= {","colon eqq","}, {\\","k i","}= (\\",") /\\",")) +\\","^- _","M N","n i","Ġ }^{\\","Ġ( |","i r","int er",")) )","bold math","Ġ\\\\ -","ar c","}) ]","o dot","Ġ- {","^{( -","\\ ;\\","f lat","},\\ ,","sup set","j l","d g","b b","d d","^{ {\\","z e","' =\\","; \\\\","[ -\\","\\, (","6 4","}\\ |^","3 0","R ic","= |","] +\\","o x",") {",") )\\,","g cd","_ -\\","n p","Ġ )=\\","- |\\","\\| ^{","_{+ }",": \\,","-\\ !","{\\ |","d V",")= &\\","dots c","} ~\\","math tt","over rightarrow","b mod","^- _{","k x","p l","}) },","sq u","] \\\\","e ff","}_{ {\\","$ }","! (","B ox","l brack","x p","\\ :","o therwise","{ }^","Ġ\\ {(",",\\,\\ ,\\,","d p","ti on",")) ^{-","Ġ\\; =\\;",")\\ }.","t u","! }{","x t","diam ond",")! }\\","| {\\","Ġ with","&= (","k n","{ }_{","}} },","}+ {\\",")) -\\","r ing","}} [","' ),","\\\\ -","\\, ,\\","}} }.","Ġ }(\\","var sigma","ĠR e","3 5","}}\\ ,\\","] [",") }^{\\","2 8","Ġ\\| _","Ġ[ (","}] ,","a g","} ''","^{ {","_+ ^","squ are","Ġ or","j j","' .","a n","} :\\",")) }\\","Ġ& (","] }{","] ^{-","| >","x rightarrow","}\\ }.","ti t","Ġ\\, =\\,","' }}",", +","i u","| +|","ker n","Ġ\\\\& +",") <\\","d q","| |_{","^+ ,","_{- }","I d",")\\ |_","\\; .","2 6",")= {",")=\\ {","h dots","] \\,","^ -\\","] (\\","\\ }=\\","y y","Ġ ^{(","^+ _{","t x","} }^{-","|\\ ,\\","math ring","d k","i h","Ġ\\ ;\\;\\","_{\\ {\\","4 0","= [","+\\ |","ve n","D u","l ar","Ġ{ {{\\","\\ },\\\\",") )\\\\","Bigg r","),\\ ,","^{* }\\",") $","y m",":=\\ {","box times","' },","y z","}\\ ,\\,","Bigg l","l k",")) }{\\","] },","g n","si ze","x z","[ (\\","Ġ[ -","' |","' }^","f g","tex tit","( [\\",", {","_* \\","a q","A x","c u","j math","triangle q","}) )\\","d B",")= (-","| }{\\","Ġ\\ |^","' ).","}] .","pro p",")] .","}\\| _","| ^{-\\",", ~~","{ }{","Ġ\\,\\ ,\\,","^{ +\\","}( |","}, &","}^* \\","var kappa",")} _\\","}_{ [","Ġ& -","Ġc on","' })","le f","Ġ= :",",\\ {","Ġ- {\\","}\\ ;\\",")) ,\\","Ġ\\\\ (","if f","p r","Ġ\\ ;\\;\\;","}} }}","4 4","}} ).","h d","\\| (","), &","\\, |\\,",")] ,",", +\\","di ag","}^* (","' )}","=\\ ,\\","}- {\\","v ol","& -\\","9 6","d S","}) &=","}\\ !\\","co n","}} |\\","}+ {","Ġd iv",", (\\","'' _","+ (-","}) }(","}}{ |",")] =",", ...","q x","}\\ },","}] _{","lef tarrow","| _\\","\\, {\\","Ġ '","}} }(","})= (","B bb","}} ^\\","script scriptstyle",") '","^{ |","^{* }(","4 5","ij kl","prop to","}\\ {\\","i T","Ġth e","; .","Ġ\\\\ =","^* -","h line","w here","Ġ{ }","\\; ,","+\\ !","^+ }\\","),\\\\ &","}\\, (","' }(\\","^{\\ ,","' )=","D f","!\\!\\ !\\!\\","] {\\",")) _{","A A","n y","Ġ det","Ġ+ {\\","d m","n n","},\\\\ &",") _+",") :\\","i b","Ġ ab","th in","thin space",") }},","}+ (\\","' _\\",") [\\","] -\\","Ġ }^","x u","| +\\","< -","\\ #","i q","| |^",",\\ ;\\;","Ġ: \\","] ;","_{ [\\","b d","}{\\ |","ie s","k r","Ġ~ =~",". }\\","Ġ= {\\","ĠI m",")! }{",":\\ :\\","+ }\\",")| =","S U",")! (","^{* }_{","Ġ\\\\ =&","}}{ (\\",")&= (","] }{\\","n q","} ~~",")+ (\\","l m","Ġ ~~~~","Ġ ~~~","} *","= }\\","Ġe xp","_+ }","10 0",") }}.","}\\ ;\\;","}) ).","! }.","\\ }^{","}}\\ |","6 0","n a","' )=\\","o ut","^{- (\\","$ \\",", &\\","Ġ })","}. ..","text tt","- }","d A","}{ }^{","Ġ} +\\","h e","'' \\","Ġ= \\,","Ġi d",")] ^","Long leftrightarrow","}{ }_{","^{+ }",") }).","k k","}- {",") }),","T M","Ġ }+","}} ),","Long rightarrow","$ ,","4 3","| }{|","in y","}) ^\\","^* )\\","m k","p x","de f","_{ <","Ġ( {","_+ ,","] )\\","' +\\",")}{ (\\","* }(","T x","t iny",")& :=\\",")) |","Ġ| |\\","Ġc o",",\\,\\ ,\\",")! }{(","]= [","' }{\\","a k","^* _\\","u u","Ġ ;\\","Ġ\\ >",")\\ },","Ġ1 4","im pl","dx dy","}}( -","}, ...,","lo w","},\\ ;","}}{ {\\","t e","Ġ= &\\","' -\\","inter text",")) (\\","Ġx y","impl ies","k m","Ġe ven","arc tan","5 0","] ,\\\\",")\\ |_{\\","_{- }(",") }^{-","Ġ} }{","\\! -\\!","en space","3 7","| )\\","_{ _{","math it","}] =\\","x q","C D","k p","Ġ },\\","Ġe ff","\\ }^","k e","Ġ| _{","^{* ,","Ġo dd","\\ &\\","}= &","\\ }\\\\",")\\; .","^* +",")/ (","z z",")} [","9 9","m s","Ġ }\\,","}\\; .","k t","m i","Ġ+ {","^* =","}\\| _{\\","}/ {",", |","Ġs o","{$ \\","] }.","S O","j x","{ }\\","big wedge",":= (","k a","} '\\","\\{ -\\","A u","ra nk","a u","i A","l y",". \\\\","Ġ) ^{-","z q","Ġ- (\\","Ġd V","^* }\\","xx x","}^{ {\\",") })=",")( -",")| .",")^* \\","T i","c frac",")} }(","] ).","ra d","$ }.","+ [","B C","}} )=","}) :=\\","Ġd w","}| |","!\\!\\ !","}( (\\","=\\ |","}} )^{","' ))","}) &=\\","^{+ }(","] &","n c","Ġ= {","}_ *","Ġth at","t s","ll ll","co th","}{ }^","Ġ3 2","_{+ }(","# \\","a a","Ġ }_","Ġ }-","_{ }",")} |\\","Ġd S","&= -\\",")\\; ,","b y","| }.","+\\ ,","Ġ,\\ \\\\","ia g","A d","Ġ( [","}_ -","^* _{\\","Ġr e","Ġ )(","' |^","t f","su cc","big sqcup","}\\; ,","|\\\\ &\\","Ti lde","N R","}\\ }\\","\\, =\\,","'' _{","| },","Ġa s","^{( +","Ġ\\| _{\\",")& :=","5 7","d P","00 0","; \\,","&= &",")| }","'' (\\","em ph","A X","\\ }}(",")\\ |\\","$ .}","[ {","s gn",")) ^{\\","n b","n f","' )^{-","] }_{","d h","d cases",") ;\\","_{ _",",\\ ;\\","}, ~","}) }{(","}~ ,",") )\\\\&=","t A","}) ,\\\\","a e","}_{\\ {","4 2","p o","Ġ= (\\","}[ (","b x","Ġ( (\\","ut e","0 2","Ġ\\ !\\","}\\ :","! }{(",",\\ ;\\;\\","\\{ -","} '_","^+ )","}~ .","j n","Ġ~ ,","Ġ~ .","})\\\\ &","] ]","j lim","ta bu","}{ =}","_* ^","^{+ }_{","tabu lar","t z","arp o","]+ [",", ..","b e","Ġ& &\\","] )=","Ġ }{(","}) ),","),\\ ;","{\\ {","^* .",")\\\\ =&","ac ute","C S","^{ |\\","ra l",")\\ !","Ġw here","}| _{\\","- [","da sh","^+ (\\","'' }","& :=","| (\\","Ġd f",")) &=",")| }{",")~ .","& :=\\","v v","Ġd B",",\\,\\ ,\\,\\,","|| _","r u","{ .","cc ccc","\\ ;\\;","}( {","Ġa d","Ġ&= (","p p","}) .\\","lo c","}(\\ {","{{ {","\\\\& +\\","] }^{","ver y","}}{ {","! },","Ġ )}\\",")}) ^","\\\\ =&","}+ |","8 0","; ,","triangle right","' }^{","r hd",")- (\\",")\\\\& +\\","' }.","c z","j e","k f","big otimes","}| }","n mid","Ġ su",") !\\","C P","] _\\","}) {\\","\\\\& +","Ġso me","j u","}= (-","}| =","sup p","_- ^","ik x","})\\\\ &=","6 7","Ġ) _{","\\}} |","' }_{","t v","| <\\","}} _\\","}) +(","= (-","^* =\\",")}\\ ,\\","_* (\\","}^{+ }(",", ~\\","4 1","}, {","}= &\\","_+ (\\","r times","}} &","Ġ( |\\","Ġ| {\\","j m","n s","Ġ1 3","big vee","Ġ\\\\ -\\","Ġt o","text sf","u e","y x","Ġe very","}^{+ }\\","2 9","}] (","Ġ& \\\\","^{- }(","script size","a i","}) |\\","}\\, {\\",") *","\\ &","]= -","{ ,","la nd","}_{ (\\","}\\, ,\\","Ġo therwise","] })","}, -","}^{- }(","N C","V ar","Ġ\\| (","l t","}- (\\",")}( -","d F","Ġd X","_- ,","_{+ }\\","n z","ĠR ic","S p","}^{ *}\\","Ġ& -\\",")} &=\\","^{- }","ge n","\\}. \\","}' (\\","~~~~~~~~ ~~~~~~~~","v matrix","}) }=","Ġd i","Ġ} -\\","[ [","}^{ }",":\\ :","q t","dx dt","$ },","7 5","}{ [","\\!\\ !","] &=","a z","\\| =","Ġ )+","Ġc h","m o","=\\ {\\","Ġ| (","'' ,","long mapsto",")~ ,","$ ,}","4 9","h phantom","r k","| -\\","Ġd m","B A",")= [","\\\\ (","\\},\\ {","Ġd iag","Ġ1 1","Ġm od","^- ,","' }=","T X",")} ]",".. .\\","], [","d T","n j","s ign","(\\ |\\","+\\ |\\","Ġ2 4",")| _","e c","Ġ ]\\","Ġ\\ ,\\,\\","^* }(","_{ *}","Ġ= \\{",")| _{\\","re e","):= (","Ġcon st",", |\\","] \\\\&=","n h","}} .\\","}}= -\\","8 8","b q","c x","e ss","u nd","}{ -","Ġ} _{\\","_{- }\\","U V","Ġd p","Ġ) ^{\\",")}\\\\ &\\","i H","j s","l r","}, (","Ġd g","it H","di st","prec eq","Ġ\\ }\\","}| .","N S","d Y","ex t","_{+ ,","}} ]","as y","cu rl","}} :=\\","}| }\\",")] =\\","{- }","/ (\\","\\ }+\\","d le","}) }=\\","5 5","^{- |","\\{ |","}] }","^- }","con st",") _{(","] .\\","e v","x v","} *\\","_{ (-","}) ^*","Ġd A",",\\,\\,\\,\\ ,\\,\\,\\,\\","S T","k u","^{- {","big triangle","at u",")^ +","Ġa ny",",\\\\ (","- (-","A C","| ~","th ing","}) )=","~~ ~\\",")\\\\ =&\\",". ,","v dash","mid dle",". \\\\\\","q r","Ġ !","dots b","^* ,\\","_{\\ |","-\\ ,","Ġd k",")= |","})\\ ,\\","^- )","+ ~","d n","e f","p lus","t q","~ }","Ġ& {\\",")} :=\\","})= -\\","spa n","9 0","c b","(\\ {\\","^{\\ {","var no","&= -",")+ {\\","'' )","~~~ ,","varno thing","\\ }_","t w","Ġ\\ !\\!","Ġd im","|\\ {",")| =\\","Re s","' ^{","Ġ& <","$ }\\","& \\\\","> =\\","x f","-\\ |","^{\\ #","m kern","r x","Ġ }^{(","_{ >","}} [\\","}) /",")^{- (","}^{ |","Ġ{ -","Ġ_{ -","|= |","D F","] ^\\","d E","d R",")} ;","] }(\\","j a","| -|","}} )=\\","Ġd q","dots m","}}\\\\ &\\","a v","m x","Ġ ))","7 2","] }=","k s","| }(","}) :=","\\, |\\,\\","_{[ -",")\\\\& +",") >\\","= ~\\","k d","p k","s r","Ġ& +\\",";\\;\\ ;\\;","box plus","}^{+ }","g x","n er","} >\\","Ġ )}{","T f","Y M","g f","l cl","si on","}) &",")} &","se arrow",")}\\, .","Ġ... ,","inter cal","' )^{","\\ }\\,","su bar","})= -","subar ray","s x","Ġ+ (\\","ĠA x","' ;","' ]","| )^{","}^{ {","ĠS O","atu ral","d b","circ le",")|\\ ,","~~~ .","p n","t binom","}} )^","}^ +\\","}^ -(","\\, {","\\| .","4 7","V ol","{\\ |\\","}^ +(",")) ^\\",")- {\\",")| ,",")&= -\\","^{+ +","\\ })\\",")} &=","over brace","_+ )",":\\ ;","Ġsu ch","' }=\\","} ',",")^{ |\\","^- (\\","})\\\\ &\\","C C","j p",",\\ ;\\;\\;","dot eq","Ġ1 5","}+\\ |","supset eq","K L","T A","o minus","}) :",")} &\\",")) _","Ġ{ }_",")}{ |\\","'' +","\\ !\\!\\","] }}","t y","\\\\ =&\\",")) )\\","},\\ ,\\","\\{ (\\","q z","}} ;","me ds","}_{ -\\","^\\ #","Ġ~~ \\","' )(","}} }=\\","}} )(","), ~","c y","m b","n atural","Ġ /\\","th arpo","Ġ1 8","Ġ[ -\\","),\\\\ &\\","\\! +\\!","}}\\\\ &","5 2","K er","h en","q p","v u","{ [\\","| /","\\, (\\",")| }{|","! }{\\","}}\\ ;","^* )^","ĠV ol","' /","Ġ\\ }}","}} |^","Ġ\\, {\\",")}) =\\","> =","12 8","asy mp","( (-","l i","}} /","Ġ2 0","ĠI d","_* ,","hoo k","w t","Ġ max","}} }{(","}}{ =}","}] _","5 4","k q","l j","l s","}\\ ,\\,\\","\\\\ -\\","' }_","6 6","] :","k z","n r","u x","Ġ st",")} }{(","|\\ ;",")) &=\\","\\| =\\","_- (\\","^{* }(\\","& {\\","}\\ |^{",")\\ }\\","var Gamma","end aligned",")] (","| &\\","Ġdx dt",") ~\\","3 8","C o","] &\\","a y","c q","t g","{ }_\\",")\\ ;\\","ĠS U",";\\;\\ ;\\","hook rightarrow","L u","r eg","~ {\\","+\\ ,\\","Ġ} }{\\","Ġm in","}^{( -","}= [","or d","Ġ> \\","},\\\\ &\\","H S","^{ }","}} &=\\","}^{\\ ,","_- )","}^{* }(","H om","T u","b t","j b","}) ;","Ġv ol","Ġs in","^+ _{\\","_{+ }^{","1 12","i w","t L","~ =~","}\\ }_{","}} }=","_- }","= |\\","a le","g tr","s o","Ġ )\\,","{\\ ,","}} &=",")} ^\\","re s","bigtriangle up","' )-",", *","| ,\\",")}\\ |","d c","j r","z x","} ')","^{- }_{",")] ^{","! )^","G L","s b","{ }_{\\","}( |\\","=\\ !",")} .\\","), &\\","}| ^{\\","}}( {\\",")}= -\\",")\\\\&= (",")}\\\\ &=","* }{\\","r brack","}}\\ |\\",")&= -","7 8",")) ]","Ġ{ }^","~~~~ \\","not e","& &\\","] }}(","righ tharpo",")\\ :",")} ,\\\\","Ġ\\\\ {\\",")( (","... +",";\\;\\;\\;\\ ;\\;\\;\\;\\","i S","o nu","Ġ ,\\\\&","_{\\ ,",")\\, ,\\",")| |","onu p","B R","k h","{ _","Ġ} )\\","II I",",... ,\\","Ġdi st","' )+","6 8","_ *}","e t","i X","t X","}} ,\\\\","Ġd h","), (\\","Ġ| ^{","^{* ,\\","}^* _","x e","Ġ ],","}{ }{","Ġd d","\\{ {\\","Ġ) +\\","B S","| +|\\","(\\ ,","ab cd","^{+ }\\","})\\\\ &=\\",") }}}","] \\,.","b s","| )^","Ġ )-","}{ *{","... ,\\","00 00","J X","v w","{ }^{","_{ }(","=\\ ;\\","od d","en skip","> _{","] ),","a f","k y","m c","Ġ at","Ġ se","}} )}","ot note","Ġi t","text sc","fo otnote","\\}} |\\","5 8","f F","}} }(\\",")} :=","}| |_{","L i","}} }}\\",")) ,\\\\","12 34","}&= (","gen frac","i R","k b","{ .}","Ġ ,\\,","}} &\\","succ eq","meds kip","] &=\\","Ġ int","Ġ ].","^{- {\\","rightharpo onup","Ġ ma","Ġ }}}",")} :","^* }{","]= -\\","|| _{\\","}:=\\ {","}}\\, .","' |\\","j f","v phantom","^{ [\\","}) }(\\","Ġ\\;\\;\\ ;\\;","S I","h k","i D","ĠI I","= -(","\\ }|","z w","-\\ !\\","ho m","Ġ{ |","Ġs ym",")_ *","ne w","< +\\","i B","r d",")} /","ro b","}^{- }\\","A D","\\ }+","}) )=\\",")}) ^{-","~~~~ ~","bre ak","P Q","\\ }\\,.","h f","Ġ ln","^* ),","}| |\\","_+ -","] }=\\","y s","da t","}, [","Ġ\\, |\\,","pre script","d Z","m t","12 0","Ġ de","}) _\\","Ġs ign","pro jlim","_+ }\\","):=\\ {","' }^{(",") )}.",") )=(","M A","T B","s w","Ġ{ (\\","}\\\\ =&\\","'' }{","]- [","' }+",") '(","; \\\\\\","\\ ,\\,\\","] )=\\","Ġ\\ :\\","'' '(",")}} =","+ }(","; -","A f","c tion","m j","ti ve","var projlim","Ġa n",")}\\\\ &",";\\;\\;\\;\\ ;\\;","' }}\\",", [\\","] |","e dat","l se","ver sion","Ġ\\, (","}}{ |\\","align edat","^{* }}",") }^{(","[ |","| }}","ra ce","}) |^","~~ ,",")] _{","^- }\\","})\\, .","gtr sim","' ^{-","' \\,","B H","j y","math version","Ġi k","}=\\ {\\","Ġ} |","}\\, =\\,","_{- ,","Ġ}\\ ;",")] _","7 0","_{ _{\\","^* )=","\\| ,","co prod","_* )","mu lt","ĠS p","}\\\\ =&","|\\\\ &","T V","d M","d l","m r","s l","AB C",", }\\","< |","d H","d binom","h g","i J","}} :=","Ġ\\, ,\\","})= (\\","3 9","d L","j v","n P","n eg","p e","Ġ ^{-\\","_{ ,\\","}) -(",")} _{(","var Phi","Ġ[ [","{( }\\","^+ ,\\",")}) ^{","triangle left","= :","m l","s ym","}} )^{-","}_{ {","}_{ |","Ġ\\\\& +\\","}}\\, ,","lar ge",") )},","h x","ĠA B","Ġ&= -\\","pa n","sta nt",")&= &","D w","}} }^{","Ġ\\, &","}}^{ [","}' _{","&& &&",",.. ,","footnote size","# \\{","7 6","C M","{ {{\\","^* +\\","\\, |","\\, =\\,\\","ĠL i","),\\ ,\\,","Ġ|\\ {","_{+ }}","A P","| ).","}{ }_{\\","}} ~","Ġ- |","^* -\\","ĠC h","Ġ[ (\\","}\\, (\\","' )|","= [\\","B D","] }_","e s","g ra","j h","}) }}","}{\\ |\\","or ner","}' '(","! [","m q","=\\ {(","}) ^{-\\","}^ -\\","Ġa x","\\, .\\","}| _","re al","i I","u b","x w","| >\\","er ms","lo r","}}\\ \\\\","Ġ&\\ ;",",\\,\\,\\,\\ ,\\,","' }^{\\","5 9","j t","s a","x g","Ġ&= -","rc orner","})\\ \\\\",".. ..","}/ (","}&= &","' )}\\","Ġ da","al low","Ġ+ |","}(\\ |","Ġ{ }_{","Ġ} }{{","&= |","]\\ !","}] +",")}\\\\ &=\\","ale ph",", ~~~","P S","m d","}) }^{","Ġs gn",")| }\\","under bar",")] ^{-","Ġ: \\,","|= |\\","& \\|",") )\\\\&","l rcorner","s mi","{ }^\\","Ġ= (-","}) &\\","Ġu v","}= :","Ġ(\\ {","\\, }","it e","'' +\\",")}= (","smi le","A Y","r f","Ġ ),\\","^{ ^{","}{ (-","}) >","}, -\\","Ġn t","\\, ,\\\\","}^{- }","}] )","Ġ\\\\& -",")}} =\\","}}= -",")}\\, ,","4 6","B u","g r","}} }_{","+\\ !\\",")} [\\","}, &\\","Ġ) }{\\",")| &\\","... )","- }\\","B B","L C","u z","Ġ\\ ,\\,\\,\\,","Ġ[ {\\","' },\\","- }(","T P","i F","t p","^{ '}","}( [\\","}} <","Ġb y","'' =","small setminus","& (\\","; {\\","T E","\\ }=\\{","z f","Ġ !}","}} :","se c","\\{ |\\",")] +","}^* (\\","})\\, ,","+ }_{","@ {\\","}{ }_","}| (",")\\, =\\,","^{* *","=- {","' })\\","D v","n T","s d","s z","}} <\\","Ġ& \\,","Ġ| _{\\","it y","ne arrow",", ~~\\","[ \\,","b z","l times","n R","| }^","} !","ng th","&= (\\","Ġc m",")+ (-",")\\, {\\","/ |","q q","r p","x H","y u","Ġ deg","}{ }^{\\",")}\\ |_{","Ġ_{ {\\","(- (","^+ _\\",")] ^{\\","11 1","S S","a w",")} >",")^{ [",")^{ (\\","}- |",")( |","&=\\ {","C F",")\\ ,\\,",")| ^{\\","$ -","; }","] }^","c n","j q","r n","^{ }_{","}{ -\\","le ngth","la p",")= -(","^+ .","/ {\\","0 5","9 8","] \\,,","l u","t ot","in d","Ġ, &","}=\\ |","Ġr eg","})\\ |_{","{( }",")| =|","_{- }^{","}}= (","}}\\\\ &=\\",": ~","\\ }},","\\ }).","q c","z t","{ }^{\\","Ġ log","}{ =}\\","^* ).","_+ ^{-","|, |",") )\\\\&=\\","n l","n v","p c","in jlim","var injlim",": \\,\\","B ar","M S","P D","] :=","h u","k R","l hd","r j","^{ ''","}) )(","Ġi j","Ġb c","12 5",")| }{\\","Ġ3 6","}\\,\\ ,\\,",")^* (","' d","\\ }}.","a ch","k T","}) }^",")) |\\","^* )=\\","},\\ ;\\","}| ,",")| |_{","_+ =","}[ (\\","Ġ$ (","}&= -\\","cccc cc","b r","_{\\ #","}^{ [\\",")}\\ ;","ĠT M","}| }{","Ġ\\{ -","\\ }\\\\&=\\","d Q","g s","s ho","| ),","| &=\\","ar ge",")^{ {",")}\\ \\\\","ĠD u",")}) (","]= (","&& &","je ct","' )+\\","7 7","a j","i P","i Y","k A","} '}","}\\ ;\\;\\","si de","De t","Ġc l","jk l",":\\:\\ :","0 3","k g","w s","Ġ ]=","(\\ ,\\","ph ys","int op","^{- }\\","Ġ\\\\ (\\","\\| }","&= &\\",")+ {","}| |^","\\} ;","subset neq","}^* _{",")). \\","W Z","}} >","}} },\\","}} )^{\\","}) }+\\",")) ).",")) }{|",")| +|","_+ ^{\\","\\\\&= -\\","und s","' }-",") '\\",") )\\\\&\\",": (","\\ :\\","i N","q a",")}{ =}","_{- }}",")_ -","Ġ^{ *",")! }.","Ġ* \\","25 6","Bbb k","' }_{\\","6 5","P f","d K","i V","{ -(","}, ~~","^* [","ĠA d","},\\ ,\\,",":= (\\","\\,\\ ,\\,","+ &","B M","T T","e ven","i E","k v","p d","r g","t b","v x","{( -\\","_+ +","}}, {\\","}}^{ (\\","> .","R S","b p","m h","p y","{ )}","} ~~\\","}\\ }}","}, ...,\\","). ..","~~ .","'' -","}\\\\& +","po unds","L ip","S L","q s","t d","}} )_{","}) ,\\\\\\","}= |","line d","^* }^","ĠD f","^- _{\\","):= -\\","mult lined","' )}{","G S","\\ }^{\\","_ !","b n","c s","h c","t B","Ġ bo","Ġ\\ }_{","-\\ {",")= :","sub ject","}& :=\\","\\},\\ \\\\","5 1","A i","D g","T v","\\ }_{\\","\\ ;\\;\\","_{\\ !","op t",")\\\\ =",")}( {\\","_- }{",")}= -","}}\\\\ &=","allow break","& [","> ,","d U","n H","}\\ }=","_{\\ {|","}} }\\,","Ġ2 3","pa ge","}&= -","}^+ _","& *","> _","A M","] \\\\&=\\","e B","s y","Ġ& :","). \\\\","Ġ| }","cc l","^+ =","^{* }_","\\\\& -\\","}}+ {\\","no align","}$ }","m f","q n","r q","}) |_{",")) _{\\","\\, ,\\,","ĠA u","long leftrightarrow","5 3",": ,","R f","X X","] )}","i page","Ġ im","}\\ !\\!","in v","}} ^*","Ġ& :=\\","er m","), {\\","Ġe v","}+ (-","ther e","min ipage",")] }","] /","z y","}{ }","}} )-","}) )^","}}{ [","12 4","Ġ_{ (",")\\, |\\,","_+ ,\\","))\\ \\\\","}& (","' \\\\","' )-\\","A y","B r","D E","q y","u f","Ġ\\ }=","_{ _\\","^{ ~","^{ '}(","Ġ\\\\ =&\\","Ġc u","})\\ ;","Ġ_{ {","}^* ,","~~~~ ~~","\\\\&= (","Ġ... \\","U U","b v","g rad","i L","j z","r T","Ġ }^\\","-\\ ,\\","}) })","}, ~\\","}_{ >","Ġt x","Ġ(\\ |","}+ |\\","ĠC o",")}( (","_- }\\","_{+ }^","iz e","& |","( {{",": |","O p","\\ }-","] }|","k D","l d","v i","Ġ nu","Ġ ^*","_{ *}\\","}\\ !\\!\\","}} }^","}} }}}","}) [\\",")=\\ \\","Ġ\\, :\\,","}] ^{","_{+ },","B F","D x","] :=\\","i G","u m","u w","| }}\\","| }{|\\","}) ^{(","^* )(","},\\ ;\\;","Ġ_{ +","^+ }{","}\\\\ -","Ġ4 8","mo de","; \\\\&","A v","L x","i se","s n","| {","Ġ= [","Ġ& >","), ~~","Ġ| (\\",")}\\ |\\","}] (\\","Ġ~ +~","}=- {","Ġco s","! }(","N p","k N","k w","m z","Ġ\\ !\\!\\","Ġ1 7","Ġ{ _","Ġ|\\ ,",")|\\ \\","}\\\\&= (","arc cos",",+ }(","side set","8 9","C R","b en","d rel","r z","=\\ |\\","}} )+","Ġp t","Ġ} ~","sin g",")}} (\\","}=- {\\","}}}{ {\\",". (","P ro","d D","g y","p u","s k","t H","| }=\\","~ &","Ġ }}.","}} })",")=\\ {\\","]\\ ;",")_ +\\","}\\| (","}}= {\\","}/ {\\","xy z","}\\\\& +\\","Ġ~~~~ ~","R F","\\ }(","b j","n F","s g","}^{ }\\","}} _{(","Ġ+ (-","Ġd R",")}{ {\\","}^{( +","}| +",")\\, (","\\{\\ |","_+ ^\\","'' _{\\","ĠO p","10 1","^{* },","il drel","bu ildrel","Co v","! }=\\","# (","- .","; (","N N","c f","h slash","k B","m space","y p","Ġ def","=\\ !\\","}} }+","Ġ& (\\","}) [",")} |^",")= |\\","ell i","Ġ\\, +\\,",":= -\\","}}{\\ |","}] ^","\\! -\\!\\",": -\\","E xt","\\ >","] \\\\&\\","u y","x b","| [","}^{ ~","Ġd P","\\| (\\","Ġ{ [","st r","Ġm n",")| ^{-","^+ -","'' -\\","})= {\\",")}} ^","il b","* (","A Z","T y","\\ }-\\","\\ })=\\","] \\}","| }\\,","Ġ }({\\","}_{ ,","over leftarrow",")) ),","Ġp q","}}( (","11 0","Ġ,\\ ;","& {","' }^{-","A e","D A","\\ }}{","c sc","s m","Ġ rank","Ġ\\ })","in ite","Ġ= |","Ġe x","co m",";\\;\\ ;\\;\\;",")&= (\\","_{* }(","9 2","I nd","m y","s T",",\\ :","Ġi x","})\\ }","}| {\\","Ġ) }(","Ġdx dy","}^* )","^{+ },",")\\; =\\;","+ ,",", .","R T","i Q","q f","}} }+\\","Ġ& {","Ġ& |","Ġ& \\{","}_ +\\","\\\\ =",")) )=","^* )^{","^* )^{-","Ġ} }(","}\\, {","\\} }{\\","ĠY M","_+ ^{","^{+ }}","arc sin","Ġcon stant",". \\\\&\\","D H","S M","Y Z","[ |\\","n E","Ġ\\ !\\!\\!","th e","math elli","psi s","}_{ +}","Ġ) _","_{+ })","=& (","sho rt","mathelli psis","' )\\,","0 4","J x","N P","T Q","\\ }\\,,","j A","k X","w hen","{ ~","{ +}","_{ ~","}} ))","Ġ& ~","var Psi","}, (\\","Ġe ach",")( -\\",")| +","^+ )^","^{* }_{\\","}; \\\\","rr rr","C h","M C","g u","n A","n w","w x","x s","Ġd b","}_ +(",")^{ *","\\, }\\",")- {","})\\ |",":=\\ {\\","_{- }(\\","^+ =\\","^{+ }}\\","D B","L T","\\ })=","] /(","b le","e a","i M","j d","v t","v al","y t","â Ģ","ti c","}) }+",")} <\\","Ġt erms",")^{ *}",")( {\\",":= &\\","Ġ=\\ ;","Ġ) (\\","}] _{\\","}}_{ {\\","_{+ +","}_{+ }^{","}... \\","' s","+ )","9 7","S P","c p","v ac","w w","| _{(","Ġd F","Ġd Z","\\, :\\,","},\\ {","}=\\ {(","Ġ\\| _\\","]\\ ,\\","'' '","'' }\\","_- -","' }+\\","N M","P T","a P","d G","e th","n X","^{\\ ,\\","Ġ2 5","Ġ2 7","Ġi z","Ġn k","),\\ ;\\;","}| =\\","{[ }","' ^\\","* }(\\","> -","@ {}","C A","L f","d C","f row","h v","p v","r ed","t ch","x leftarrow","Ġ }},",")\\ }_{",")\\ }=","me nt","}) }_{","ro ot","Ġ| _",")+ |","}+\\ |\\","Ġ}\\ ,\\","}] }\\","'' )\\",")}) _{",")|\\ \\&\\",")~ =~","Ġ\\;\\;\\ ;\\;\\;","frow n",", ~~~~","8 1","S R","T w","h h","t k","| )^{-","ar d","}) },\\","Ġ- [","), [","}. \\\\",")) &","Ġw hen","_{( -\\","^- _\\","_- ,\\","mode ls","/ {","B x","J q","S D","b k","l c","l p","r y","| }=","_{ }\\","}} )(\\","da st","}] -",")}) }","}& &","}_+ ^","circle dast","6 3","K f","M L","S NR","T Z","] \\\\&","a nt","d N","e u","x h","| }}{","ra ise",")=\\ |","}- |\\","Ġc d","}\\, =\\,\\",")| +|\\",",\\\\ -","re a","\\; =\\;",")\\\\& -\\","}^{* }(\\","' &=","' }}{","D T","J K","M f","\\ }\\\\&\\","q j","x a",")\\ }=\\","Ġ\\\\ \\\\","), ~\\","^* )-","\\| ^{\\","ĠH ilb","}| ^{-","Ġ\\{ (\\","small skip","}\\! -\\!","âĢ Ĳ","' }-\\",") _{-",") {{\\","8 5","A z","H ess","X Z","e nt","h a","i dx","k c","{ ,}","Ġ\\ ;\\;\\;\\;\\;\\;","}} }_","^{- |\\","\\{ [","}| -","_+ .","_+ }{","^- =",")}) ^{\\","}& :=","):= &\\","_{+ }(\\","Ġ6 4","}}}{ {","}^+ (\\","arpo on","+ ...+","C H","N L","R L","i C","j V","m L","p f","~ (","Ġ )},","Ġ( [\\","Ġ- (-","\\, [","Ġg h",")&= &\\",")! },","^{* })",")\\| _\\","& |\\","N T","\\ }^{(","j g","l q","n K","p w","p z","r h","s v","u ph","~ =~\\","}) )^{","+\\ ;","Ġa c","Ġe xists","Ġ\\, .\\","Ġi e","ĠG L","ce nt","}[ -","{- }\\","13 4",")\\\\&= -\\","): \\,","ru le","uph arpoon","$ }\\\\","' ^{(","( {{\\",") )}=","9 5","R R","] ,\\\\\\","a tion","i K","l x","r v","{ =","}} +(","Ġ+ \\|","Ġd M","Ġd Y","}= -(","Ġg rad","),\\ ,\\",".. ,","})= (-",")}}{ {\\","}^+ }","Ġ\\# \\","{}{ }{","$ },\\\\","' >","' )^{\\","H P","t c","x d","^{ ^{\\","_{\\ ;\\;","}} )+\\","Ġ& ,","}) ]\\",")^{ {\\",")) |^","ĠH om","12 2","}^{- (",")] -","}[ |","_{+ }-","=- {\\","Ġ&=\\ {","}_{- }","upharpoon right","! ^","2 00","8 4","J Y","M r","i W","t S","t race","x T","z v","| }(\\","Ġ }\\\\","Ġ\\ -","}\\ }=\\","}} }^{\\","}}\\ !\\","Ġ{ }^{\\","co r","eq n","_{- },","}& {","^{+ }_","^{+ }_{\\","23 4","|- |\\","$ },\\",", &&","- })","2 11","< (","C B","D i","N x","T D","] [\\","e l","f ree","l g","}{ [\\","Ġ\\\\ +",")= [\\","ap e","^* }{\\","{( (","Ġ3 0","10 8","]= [\\","box ed",",- }(","}' =\\","cccc ccc","$ }_{","6 9","; (\\","< {\\","B y","C x","G M","K N","T e","V P","\\ !\\!\\!","] \\\\\\","a X","a h","b l","j c","k P","k ij","s ma","u g","| ^{-(","Ġ supp","Ġ\\ },\\\\","Ġ+ [","im ize","Ġn x","Ġ} [","}}{ (-",")}{ [",")\\\\ (",")| ^\\","}}( {","}] +[","di sc",")! !","\\\\& -","^{' }_{","+ }^{\\","N f","P A","Y X","\\ }),","] ^{(","a D","j X","n L","v s","Ġ ''",")\\ !\\","=\\ \\","}) ].","leq q","}+ [",")) &\\","Ġ-\\ ,","_+ =\\",")] +\\","^- .",")! }{\\","),\\\\ (",")}+\\ |","Ġ\\! +\\!",",~~ ~\\","mb er","' }}(",", $","C on","T g","k C","r w","x F","| )^{\\","Ġ '(","}\\ ;\\;\\;","(\\ !","}_{ *","Ġ\\, (\\",":= -","Ġj k",")\\, =\\,\\","^+ +","^+ )\\","(( -\\","Ġ~ {\\","})=\\ {","):= (\\","\\# \\","\\!\\!\\ !\\","! \\,","B E","J u","T S","b i","e p","g l","m R","q b","| ^{(","Ġ ig","Ġ })=\\","Ġ are","al g","ti sf","}} )}\\","Ġ\\\\ |","Ġn e",":=\\ ,\\","}] +\\","}[ {\\","Ġ~ ,~","}{| |","Ġ\\\\&= (","\\\\& &","))= (\\","}:= (","Ġ\\# \\{","' :","A ut","e V","j w","l cr","y r","Ġ me","Ġ\\ ,\\,\\,\\,\\","}} ,\\\\\\","er f","Ġ2 8","Ġe xt","&= [","co v","Ġ) -\\","}] =-","^- =\\","}}= (\\","}~ =~","); \\\\","C a","H g","\\ }^{-","o f","s A","y v","Ġ\\ .","^{ }_","}^{ |\\","}) }}{","}) ^*\\","se e","}}\\ {",")) :","Ġ_{ (\\",":=\\ ,","Ġ\\{ |","}] [",")] _{\\",")}) -","\\}\\ \\\\","14 4","! )^{",") )^*",") )\\,.","] }+\\","j T","m it","p F","t D","x M","| )}","Ġ+ |\\",")} ,\\\\\\","|\\ !","\\| |","Ġs a","co h","co lse",")| +\\",")| <\\","\\{\\ {","_{- (","^+ }(","Ġ$ |","}& -","}^* .",")}= {\\","\\\\& &\\","))= -\\",")=- {","colse p",". \\,",": &","P B","S ym","] },\\","i Z","m v","t m","~ ,\\","_{ ~\\",")\\ {","}) }}\\","lo cal","Ġ2 6","Ġn ot","Ġy x","Ġc om","}| +|","Ġ) _{\\","_- =\\","}\\| _\\","}' ,\\","^{+ +}","xx xx","}^+ ,","]}}( {","' [",") ~~","- ~","B h","D N","T L","m g","} ~~~","^{ =",",\\ {\\","}} }-\\","}) <","}) ],",")= &(","Ġt ot","ĠA X","Ġ} &","}| +\\",")| >","})= &","))\\ ,\\","13 2","24 0",")\\\\& -","Ġ:=\\ ,",",\\;\\;\\ ;\\","' )}{\\","' \\|^","( ||",") )}=\\",", (-","= {{","A V","A t","c g","u l","u r","y H","| ~\\","Ġ\\ &","_{ ;","_{\\ ;","}} ]\\","}) '(","}= [\\","array colsep","}+ ...","^* )}","}}{ =}\\","Ġb a","*} [","\\} :","_{- })","}), (","}' }\\","\\\\& &&","19 2","Pro d",") ''",". ~","C L","F P","G F","d J","h D","n B","x B","Ġ ho",")} ~","}^ *}","^{- }_","}, ~~~","}_ -\\","}^{\\ #","^* |","Ġ} |\\","Ġc a","Ġc t","}| )","}\\\\ (","fo rm","}}= {","_{+ }}\\","|\\\\ &=","}\\! +\\!","SI NR","$ ;}","' }^\\","' \\}","9 4","C T","P V","] }+","o sc","p H","p b","u ge","Ġ }^{-","}\\ }}\\",",\\ |","er o",")} +(","Ġ\\\\ =\\","\\\\ (\\","Ġe qu","\\| =\\|","Ġ{ |\\","st re","}_{\\ {-","Ġw e","ĠN S","),\\ ;\\;\\;","Ġ) ^\\","^- }{","_- +","^{* }}\\","}: \\,","Ġ&& &",")}}{ {","Ġ\\;\\; .","$ }.\\","' &","B T","I V","L L","N u","] )+","r N","r lap","y l","Ġ }}=","^{ }(",")} <","var Omega",")) /","\\, ;",")| -","\\{\\ ,","Ġ}\\ ,\\,",")] ,\\","}& -\\","00 1","=& -\\","mn p","en ce","tion s","! }}\\","' <","' ^{\\","' }}{\\","+ [\\","2 12","D P","G E","I R","J e","T H","U E","] )^","] ,\\,","f d","p A","p ut","x D","{ _{","_{\\ ;\\;\\","}_{ |\\","Ġd U",")= +\\",")) +(","\\, +\\,","Ġ{ (-","Ġ, {\\","Ġ| =","[\\ {","\\{ {","(- {","Ġ4 0","11 11","_- =","_- ^{-",")}} _{",")}= (\\","([ -","ip x","~~~~~~~~~~~~~~~~ ~~~~~~~~~~~~~~~~","stre tch","$ }(","A a","A w","D D","E nd","F S","N d","T R","X u","r ll","t T","t dt","v p","y w","| &",")\\ |^{","}} )}{","Ġ& .\\","}) &=(","^{- },","Ġd E","^* ))","\\, +\\,\\","\\| }\\","Ġp er","Ġb x","Ġ[ {","Ġ\\| (\\",")}{\\ |",")}} ,\\","tt er","! }}","- )","- ,","- },","0 11","7 4","F G","L arge","S C","\\ ;\\;\\;","a T","h t","l f","v line","y f","{ }\\,","Ġ qu","Ġ\\ :\\:\\:","}\\ \\{\\","su it","|\\ \\\\",")= :\\",")=\\ {(",")) }(","\\| }^","&\\ {","Ġy z","Ġ} }^{\\","}\\, |\\,","(- {\\",")| )",")| |^","}] ^{-","Ġ\\\\& &",")] \\\\","re n",":\\ !","13 5",")}(\\ {","))= -","Ġ; \\\\","}}- {\\","IJ K","' /\\",") *\\","* (\\",", +}","0 10","6 1","A U","A dS","D p","M e","T d","\\ }}}","\\ }\\\\&","e e","n N","{ =}","} !}","Ġ }=-\\","_{ }^{","_{ },","_{ }(\\","^{ '}\\","Ġ& |\\","Ġ& ~\\","}) '",")} ^*","ga uge","}(\\ {\\","}}\\ ;.","co mp","Ġw t","'( -","|_{ [",")] [","))\\ }","_* ^{-","}}^{ *","}}^{ *}","16 6","AB CD","ix ed",")^{( -","Ġ~~ ~\\","}]= [","' |^{","8 7","> <","B V","D R","E x","L M","a A","c v","f i","h n","z I","| }+","} !\\","Ġ par","Ġ\\ ;\\;\\;\\;\\","_{ +\\","}{ {{\\","le ment","}} ),\\","}) }-\\","Ġu n","Ġf g","array stretch","Ġ\\, ,\\,","Ġn p","Ġp r","Ġ&= (\\","Ġk x","ĠC e","Ġ. \\\\\\","Ġs p","ĠL u","set length","12 12","_{- -",")_{ ,",")}, &","^- )^","_* }\\","\\|\\ |",")}= {","Ġo ut","\\}\\ }",")&=\\ {",",- }","ii i",")^* ,","Ġ=& \\,","Ġ\\! -\\!","' }|",") [(",", *}\\","S E","T N","\\ }\\\\&=","_ >","e ct","g A","g v","m N","p j","x L","Ġ\\ :\\:","in de","}^{ '}(","}} }-","cdot p","Ġd H","Ġd c","}}\\ ;\\","\\| _*","Ġ} }{{\\",")- |","ĠD F","}| <",")| |\\","_+ }(",")_{ +","Ġ\\\\& -\\","))\\ ;","10 2","_* ^{","_- ^{\\","_- ^\\","Ġ~ (",")}} }\\","}^- _{","' )]","> _{\\","N r","P l","R a","U T","a N","e A","t U","{ *","Ġ op","Ġ Det",",\\ ;\\;\\;\\;\\","de d","}} }}{","lo op",")} )\\,","}_{ [\\","Ġd l","Ġd n","Ġ1 9","Ġi y",")) }{(","}- (-","tri ction","}=\\ \\","Ġb e","ĠC T","}_{\\ {\\","ĠS ym","}\\, |","}\\, ,\\,","}| }{\\",")}) }{\\","16 0","ps mall","arrow vert","psmall matrix","' :=","' }\\,","' }}}","- [\\",". &","= _","A R","A T","B L","K M","Y u","n S","n on","q w","y q","Ġ }{|","Ġ ]}","Ġ }}=\\","Ġ phys","Ġ\\ }|","}{ @{}","Ġ= \\\\","}} )-\\","}) ~","}, [\\","la be","}}\\ |_{","Ġ(\\ ,",")) -(","^* \\|^","Ġk j","ĠT x",")- (-","dx ds","}] ,\\",")_{ |","~~~~ ~\\","})+ (\\","\\! +\\!\\",")^* .","}_{+ }\\","ĠRe s","BM O","' \\|","3 21","= +\\","C e","b g","h s","i U","j R","v f","{ +}\\","| },\\","| }|","Ġ ra","Ġ }(-","Ġ\\ !\\!\\!\\!\\",")\\ >",")\\ ;\\;","su ch","}) )}","}) )\\\\","}) |^{",")} }\\,",")} ]_","_\\ #","big m","Ġi a","^* },","\\, |\\","ĠP f","{( {\\","'' =\\","^- }(",")}} +","{{ {{\\","): &=\\","})}{ =}","ol d","' }).","' ))\\",") )\\,,","B G","f u","m M","n C","n D","q T","t P","z u","{ }&","| ))","ta l","}} ~\\","}} ~,","}{\\ ,","Ġd L","ĠA v","Ġv ac","Ġp o","Ġ| ,","Ġc p","ĠC l","ij l","})\\ }.","{( |",":=\\ {(",",\\\\ -\\","_{- }-","]\\ ;.","}}, &",")_ *\\",")] }{\\","Ġ^{ +","{| |","\\|\\ \\&\\","Ġ\\\\&= (\\","}' =","!\\!\\ !\\","}_+ ,\\","' _{(",": }","@ {","C N","C l","N z","W F","] /\\","g d","x X","ta g","{\\ #","Ġ& .","}) :\\","mu l",")} }^{","Ġd T","}_ -(","Ġn on","^* }(\\","ĠA e","Ġ{ }^\\","},\\ ,\\,\\,","Ġ| .","ĠS L","})\\ ;.","),\\ ;\\","}| |_{\\",".. \\",",\\\\ (\\","^- )\\",")&= (-",")}) )","^{+ }(\\","}\\; =\\;","triangle down","}:=\\ {\\","dv ol","Ġ\\;\\; ,","res triction","$ .}\\","' &=\\","' })=","0 9","6 26","B e","D L","E u","H u","K K","N e","P R","S f","U L","\\ }}=","b xz","z L","{ +","Ġ })=","Ġ '_","Ġ= \\|","}} |_{","}} ~.","Ġ& \\|","Ġ& ,&","-\\ |\\","}) ))","}) /\\","}}\\ !","Ġ{ }&","ĠT u",")| }.","up lus",")] }{","Ġ_ *","+( -\\",")}) ,\\",")}) +\\","}{| {\\","}^* =",")& -","}~ {\\","Ġ\\{\\ ,","})- (\\","17 28","_! {\\","Ġsa tisf","! }\\,","' )=(","8 6","D C","G r","L P","P P","T a","X J","] }^{\\","n Q","r b","r dr","v space","| :","| }+\\","| (|","}\\ \\{","ar y","{\\ {\\","_{\\ |\\","Ġ& \\\\\\","su re","Ġd K","nu ll",")) )=\\","^* }}","Ġ{ }^{","},\\ ;\\;\\;","Ġp a","Ġp ro",")}\\ ;.",":= &","ĠC P","ĠD g","Ġ&\\ ;\\;","}] }(","_- )\\","}}^{ +","Ġ] _{","\\}} -\\","_{{ }_","}_+ ,","56 7","\\},\\\\ &","cy c","' ;\\",") *}","+ ...","E G","L R","N a","S H","T C","f v","k L","t Z","x A","x P","{ =}\\","| &=","Ġ le","Ġ there","Ġ\\ ,\\,\\,\\","}{ {{",")\\ ;\\;\\","}) }\\,",")} -(","), ~~~","). }","Ġ2 1","}= :\\","ĠC on","Ġs ing","ĠP r","),\\ ,\\,\\,","ĠK er","]\\ }.",")] }\\","Ġ3 4","_* )\\","{| }","Ġ] =\\",")\\\\&= -","!\\!\\ !\\!","}^{* }=\\","18 0","Ġ\\# (",")|= |\\","$, }\\\\","ke y","Ġcu rl","sma sh","( +\\","+ _","= :\\","N g","T Y","Z Z","b h","e lse","l b","n M","r ot","| }^{","Ġ set","^{ <","ma in",")\\ }\\\\","}} ;\\","}) }_","}) }\\\\",")} ||","), -","^* }_{","Ġ| |^","ca n","Ġm m","}| =(",",\\, {\\","_+ +\\",")] (\\","10 00",")}) (\\",")}) -\\","}^* _{\\","22 2","}&= (\\","Ġin d","mo st","labe l","' |^{\\","+ )}","8 3","D iv","F B","R x","S h","V f","_ <","j ik","m w","p B","t C","t Y","t j","| )(","| /\\","}\\ :\\","al most","Ġ& [",")} }^{\\","Ġ\\\\ \\\\\\","}_{ (-","). \\\\\\","}. \\\\\\","}+ ...+",")) }}","^* ;","\\| +\\|","ĠE f","Ġ=\\ {\\","Ġ\\| |","_* }{","_* }(","^{* (",")}} )","{| {\\","}=- (\\","{[ }\\","Ġon ly","' |_{","7 9","D M","R m","] ^{-\\","^ !","f h","k M","p le","t G","{ ^","}\\ },\\","_{\\ !\\",")\\ }}","}} )_{\\","eg er","}\\, [","Ġ_{ -\\","Ġ\\; {\\",")^{- (\\","Ġ:= &","up p","\\} /","_{- }=","}{( |","re sp","^- ,\\","_- }(","_{+ -","}' _{\\","}\\; {\\","ne ver",")^* =","he never","37 166",",\\;\\;\\ ;\\;","Ġnu mber","short intertext","mul ti","626 37166","' |_","+ &\\","+ {{",". }}",": [","B U","P u","T G","\\ !\\!\\!\\!\\","] }^{(","] }{(","] }\\|","d om","j L","t er","{ }{\\",")\\ |=","Ġ- |\\",")} ,\\\\&","Ġ1 00",")^ -","\\\\ \\\\","}= +\\","^{( -\\","^* ]","}| (\\","}}( -\\","_{- }^{\\","'' }(",")] )","^- -","_* -",")}_{ {\\","^{* \\","\\; {\\","\\; ,\\","tr ue",")^* (\\","arrow left","]\\\\ =&","^{(+ )}_{","$ }}",") ~~~,","A W","B K","B N","D G","I NR","N t","\\ })+","` `","c ard","g N","t n","y b","| )+","~ (\\","math rel","Ġ& ,\\","}) )_{",")) {\\","^* )+\\","Ġ| ^{\\",";\\ ,\\","ĠB u","Ġh a","}\\, _{","Ġ\\| ^{",")| }{|\\","'' ,\\",")}) }\\","]= &","\\}\\ }.","}; -","): &=","]_ <","}^+ _{","]{ }","cccc cccc","|\\\\ &=\\","}^- _","Sp ec","Ġbo und","' }),","( +",", ,",", _",". {\\","0 12","7 3","B I","C ap","H at","M u","b A","f x","g t","j B","l h","o us","z A","{ }+","| }-","Ġ )\\\\","Ġ arg","}\\ },\\\\","math c","}} ))\\","Ġ+ _","}) }-","var Delta","la w","^* }^{","\\| {\\","\\| +\\","}=\\ |\\","Ġk er","Ġb d","Ġq x","ĠD A","})\\ |^","ĠV ar","12 1","}\\, .\\","un i",")_{ [","})= &\\","))\\ |_{",")/ (\\","Ġ~ |~","^{* }=\\",")}} -",")}} +\\","}^* =\\","}' +","}~ (","\\\\&= &","ol y","is H","rr r","}$ \\","28 8","! }=","' =(","- )\\","J M","J v","L a","M M","\\ &=\\","] }-","e h","f e","r A","v a","x J","z g","~ ,~","}\\ })","ma n","ft er","}^{ '}","Ġ& \\\\&","Ġ+ \\,","}) )^{-",")} ].",")} }{|","^{- }}","Ġ\\\\ {","), ...,","Ġ{\\ |","\\, ,\\\\\\","\\| +","[\\ ,\\",")}\\ }",")}\\ |_","ĠI II","}| }{|","Ġ) ^{(",")\\\\ -",")\\, :\\,","sup er","_* .","):=\\ {\\","_{+ }^{\\","=- (\\","}&= &\\","}:= (\\","' )_",") )}+","4 00","C t","M t","S x","U D","X A","\\ ,\\,\\,\\,","] }_{\\","j D","q A","q d","w r","| })","| )}{","} !}\\","Ġ ~~~~~~~~","Ġ loc","^{ ~\\","}\\ {(","ma ke","igh t","}} }_{\\","}} }}{\\","}) )+","Ġ2 2",")) >",")) :=\\","^* }.","\\, =\\","\\| _{(","Ġ{ }\\","Ġp rob","ad j","ĠC t","ĠS t","~~ {\\","Ġ_{ |","or b","Ġ) }}",")| &=\\","}}( |",")^{\\ !","un ction","^+ +\\","]\\ ;,","'' }{\\",")}) }{","sh ape","_{+ }+","_{[ <\\","}' )\\","23 1","Ġth en",")$ }.","}_* (",") ~~~.","A F","C r","E F","H H","N m","P x","R an","V V","] ],","b cd","d j","h p","p ert","q k","q m","s X","t F","x I","{ }~","Ġ\\ }=\\","_{ }}",",\\ \\|","}} }},","}) ]=",")} ],","}}\\ }","Ġ2 56","^* |^","^* :=\\","^* )-\\","\\, ,\\,\\","&\\ ;",")- [","}| _\\",",\\\\ {\\","_{- }^","^+ }^{\\","Ġ\\\\& <","):= -",")|\\ \\&","Ġ] ^","Ġ\\: .","}^{+ },",")}+\\ |\\","Ġor der","Ġ\\;\\;\\ ;\\","^{++ }_{","make box","$ })","& ~","& \\,","' :=\\",") )}^","; -\\","> }","K R","M P","Q P","Q u","S ub","T F","] }}{","] ;\\","a E","l ds","q v","s ds","w e","Ġ }),","Ġ\\ }.\\","_{ =","(\\ !\\","}} )}{\\","}} }\\|","}) }^{\\","}) }}{\\","lo b","}_ *\\","ll lll",")^ *}\\","Ġ2 9","}^{\\ ,\\","Ġ\\, -\\,","^* )+","\\, -\\,","\\| [",":= [","pro j","ĠD v","ĠE nd","Ġ\\{ -\\","^+ )=","}] )\\","Ġ4 5","}), ~","^{* }=","~~~~ ~~~","^{+ })","]+ [\\","normal size","}_{- }\\","}_+ }","iz x","_{* })","{}{ }","con stant","Ġ={ }&","]_< ^","+ +","- {{",". )","6 2","C f","E q","K r","M R","P U","T U","] })\\","m V","t N","t V","w v","~ |~","{\\ #\\","Ġ= [\\","}} -(","}} ...","}) )-\\","var triangle","la ck","Ġu ni","\\\\ *","^{( {\\",")( [",")}\\ |^","rc ll","}\\, ,\\\\","Ġ) }^{",")| (",")| &=","_{- }^{-","_+ )^",")] \\,","})= {","Ġ[\\ ![","Ġor d","^{(+ )}_","str ut","& >","' ),\\","' }]","' )(\\",") )^{-\\","* _","0 7","2 16","< -\\","B f","M G","M H","S pan","\\ }=-","\\ ,\\,\\,\\,\\","] ^+","b m","h igh","k V","n I","p M","s I","s j","Ġ ge","Ġ\\ }_","Ġ\\ },\\","}\\ !\\!\\!","}} :\\","}} ||","}_{ =","}_{ }","Ġa p","}= (-\\","Ġ| -","Ġ| }\\","Ġ} }^{","}}{ -","ĠX Y","Ġs ta","})\\ |\\","Ġ=\\ ,\\",")\\, ,\\\\","up per","}\\\\ -\\","}] ]","|_{ {\\","'' .","bra ne",")&= [","Ġ_{\\ {","Ġ\\\\&= -\\","{{ }={","il ity","}}+ {","}&=\\ {","Ġ7 2","^{' }_","hf il","cor ner","form ly","! (\\","+ }\\,",". }(","> ^{","B P","B t","C E","H T","K e","N w","Q R","\\ _","\\ &=","] |^","] ,\\\\&","b X","m H","r J","| )\\,","Ġ var","Ġ }).","Ġ= ~&","de n","}} )_","}) )+\\","^{- }(\\","Ġ\\\\ +\\","ho r","Ġu u","^* \\\\","\\, )","Ġb u","Ġs ol","})\\ |_","Ġ\\; |\\;",")| <","up shape","}^{- },","_+ )\\",")! ^","') ^\\","_{+ }=","\\; =\\;\\","\\\\&= -",")\\| .","}_{- }(",",.. ..",")}/ {","62637166 33","' )_{",": {\\","B PS","D W","F A","K u","P L","S G","\\ -","] }}\\","] }\\,","b w","b lack","c w","g B","h m","j N","k S","m T","x Q","} ~~~,","Ġ ta","Ġ )}.","Ġ '}","Ġ root","_{ }^","in k","Ġ= -(","}^{ ^{\\","}} )\\,",")} _{-","}, {{\\","Ġx z","ng e","}(\\ |\\","Ġ\\, =","ap p","^* })","^* }-","ĠA y","\\| )","\\| &\\","Ġ&= (-","Ġ| {","Ġ| |_{","ĠC N","Ġr s","Ġ. \\\\","Ġ_{ +}","}| )\\","}| |_",")\\, |",")\\, (\\","}}( |\\","^+ )^{","'' +(","}[ [","'_ *","_* +\\","_* )(","_- ^{","dy dx","Ġ~ -~","]} |\\","):= {\\","}; {\\",")^* =\\","}}- {","})}{ (\\",")\\; =\\;\\","}\\\\& -","}\\\\& -\\",")~ {\\",")~ =~\\","nk n","}_{+ },","19 9","Ġco nt","@{\\ ,}","âĢĲ \\","cent er","! .","& +\\","' t","+ },",", _{","- -","- _","- }^{\\",". )\\","5 12","; [","= ({\\","> _\\","M T","N W","N c","O MA","d I","k F","n V","o g","p g","q i","u h","x dx","z m","~ +~","_{ <\\","si tive","}) }_{\\","}) ,\\,","}) <\\","}) ,\\\\&",")} ]\\","Ġ\\\\ *","). (","}^{\\ ;","}= |\\","ĠA i","&\\ ,\\","Ġg x","Ġ| [","ĠT f","ĠP x","ĠH ess","\\{\\ |\\","_+ -\\","_+ }{\\","_+ ^{(","\\|_{ {\\","}}, {","Ġ\\\\& >","Ġdx ds","Ġ^{ (\\","^- ).","_* +",")}) +","^{* }+","]= {","]= {\\","{| |\\","}}_{ [","Ġ\\\\&= -","14 5","du dv","Ġ)\\ ;","}}}{ (\\","}^+ }\\","^{{ '","))\\\\ =&","true cm","' \\|_{","' |}","* ,",", *}","C X","F D","M F","M O","M at","N F","P NC","S W","T W","T z","V W","X f","a Q","d ddot","f in","h B","j Q","j Y","p L","s ph","u lar","v y","y e","z F","| )=\\","| }}{\\","Ġ }=-","Ġ rad","ma nd","le m","Ġ= |\\",")\\ :\\","}^{ '","}) )-","}, |","ab s","Ġg f","Ġs c","Ġ[ |","Ġ[ \\,","})\\ },","}-\\ {","Ġ\\; (","^+ (-","'' _\\","di c",")] -\\","^- +\\","_* ,\\","_- .",")! \\,",")}) ^{(","') |\\","\\|\\ ,",")\\\\&= (\\","}}+ {{",")=- {\\","Ġ* _","}^{* },","Ġdv ol","]}{ [","con v","}~~ .","^{(+ )}","\\}+\\ {","Ġse ch","_{\\# }^","' ]\\","' )},","' })(",") '=",". +\\","= (-\\","D U","H f","L S","V R","V U","W P","X B","\\ }|.","] !","a B","a V","g w","k I","l in","u d","x G","{ ]}^{","| .\\","Ġ })^{","Ġ ).\\","^{ }\\","in st","}( -(","}} |^{","}) (-","}) ]_{","+\\ {","^{\\ ;","^{- -","mathb in","}, ..,","), -\\","\\\\ $","ro m","}}\\ :","^{( _","Ġ\\, |",")) '",")) ,\\\\\\","^* }+","ĠA C","ĠA f","Ġp oint",")}\\ !","Ġc y","Ġr en",")| -|","_{- },\\","^+ -\\","}[ |\\","{- {\\","') ).","^{* }-","23 6","\\}} )","kl m","}}\\, (",")=- (\\",",\\,\\,\\,\\ ,\\","cl ic","~, ~~~","XY Z","48 0",":\\:\\ :\\:\\","po s","tw o","com mand","! }(\\","' ):=\\","9 3","; &","L v","S Y","] +(","h X","i ck","k G","n J","p X","u a","u rl","{ )}\\","Ġ sum","}\\ }_","}^{ ~\\","}} }|","}) {","}) )\\,","Ġ\\\\ |\\","|\\ }","Ġf unction","}= {{","Ġ\\, )","ĠA P","\\| ^\\","Ġc x","pa ce","ĠL B","})\\ !","}^{( {\\","Ġ) ]","Ġ) &=","dx d",")| >\\","}}( [","_{- }}\\","\\|_{ {","\\,\\ |",")! (\\","^{* }.","\\}, &","tor s","):= &","_{+ +}","\\}\\ ;.","}}=\\ |","|| (","}/ (\\","Ġ] ^{","mn pq","}}}{ {{","|\\, |","Ġ\\! =\\!",",\\,\\,\\,\\ ,\\,\\","Ġ:=\\ {",";\\;\\;\\;\\ ;\\",")=& -\\","_{* *","{}{ =}","\\# \\{","low er","bigtriangle down","new command","Di am","# \\{\\","$ }_","& +","& \\\\\\","' )}.","' })}","8 64",": -","> (","A Q","B v","E M","F ix","G B","J T","L t","N X","R G","S a","\\ }}_","] |\\","] )}\\","g H","g k","g p","g lob","h b","j K","m A","s B","t M","t Q","~ [","Ġ times","_{ /","}) }{|","er r","}{\\ #","}_{ *}",")= &-","}}\\ ;,","Ġa a","Ġ\\, [","^* )^\\","Ġ, }",")( (\\","Ġc n",")+ [",")+ |\\","}\\, |\\",":=\\ :","Ġ\\| {\\","\\} &\\","^+ ),","}] \\\\","Ġ\\\\& (",")] ^\\",")] =[","Ġ4 3","^- +","_* =\\",")! }(",")}) ^\\","}& {\\",")}} -\\","}\\| .",")}= &\\","Ġ}{ }^{\\","io dic","ik l","}' .",")& &",")}+ {\\","}},\\ ;","}< +\\","}\\\\&= -\\","Ġ9 6",")$ ,","av g","Ġint eger","raise box","' ^*","' ,\\\\","' \\,\\","( *","( .,",") ~~\\","0 6","4 56","A r","A s","D t","G H","H G","K S","N k","N s","] ^*","] ]=","a I","c rea","g z","h A","i ther","j E","j H","k H","m B","o s","o v","p Q","r R","x R","x U","| )}\\","Ġ lim","Ġ }.\\","_{ _{(","ma tter","in u","}{ =","}{ {(","ar t","}) )}{","}) ]_","lo se","^{- })","^{- }_{\\","}{\\ }}{","}, &&","}_{ _{","\\\\ |","Ġf ixed","Ġ\\, ,\\\\","Ġ(\\ |\\",")) )^{",")) |_{","Ġn o","^* :","Ġk l",")- |\\","ĠP ro","text md","bigg m","Ġ_{ ,","}| =|","dt dx","}\\\\ =","}{( (","}] },","ce s","re newcommand","display break","Ġ,\\ ;\\;","_* =","_- )^","_- ^{(",")! }}","16 8","]=\\ {","}}+\\ |","Ġ6 0","25 0","ct u","}_{+ }(","^{(- )}_{","pr ot","{\\{ }{\\}}{",")_* (","AD M","$ }^{","' }{(","' }}(\\","' |}{","/ |\\","B matrix","C s","E R","E f","H K","H or","I N","P C","[ (-","\\ /","\\ }(\\","\\ }}(\\","\\ }}=\\","j P","q e","r ve","s H","t erms","x m","y ing","z h","z s","| }{(","Ġ\\ /","_{ ||","}\\ }}(","}} )}.","}} ].","}} ,\\\\&","var Lambda","}_{ ~","Ġd o","|\\ ;\\","), |","}. }","Ġt y","Ġi u","}+ [\\",")) ]\\","\\| {","Ġ, (","Ġ&= [","Ġ&= |","}}{ }",")}\\ }.","Ġh as","ĠS INR","})\\ ;,","~~ }","}\\, ^{","}| >","}| -|",")| &",",\\\\ |\\","]\\ },","}] }{","}] }{\\","'' },","'' ).","^- )=","(( (","Ġ] +","bu lk","\\! }\\","}^{+ }_{",";\\;\\;\\;\\ ;\\;\\","}^{* }_{",")< +\\","Ġtr ue","\\},\\\\ &\\","})\\\\& +","^\\# (","so ft","MS E","eu c","prot ect","& .\\","' m","' }},","' =-","+ }^{","9 1",": |\\","A H","B X","D V","D X","E H","G G","I K","N E","R P","S upp","T or","] ~.","_ (","a S","b L","n Y","o ff","s cal","z T","~ \\,","ig arrow","_{\\ {-","right squ",")\\ },\\","=\\ ,\\,","la ss","Ġ\\\\ \\{","|\\ |",")= (-\\",")^ *}","ri t","Ġf inite","}}\\ }.",")=\\ \\&\\","Ġi p","^* \\,","ĠA A","ex pan","to n","Ġv ec","[\\ |\\","Ġ} _\\","}}{ =","Ġr j","ĠL f","12 13","}\\, +\\,","&=\\ {(",":=\\ ;",")\\\\ =\\",")}( |","(- (\\",")| },","min imize","^+ ).","Ġ|\\ ;","}}, ~","}), (\\","], [\\","10 10",")! !}{","}}^{ }","^{* *}","}^* )\\","Ġ}{ {\\","\\}\\ ;","}' -","em ma","Ġ\\: ,","Ġ5 6","Ġ\\,\\, ,",")\\| ,","}^+ .","|, |\\","Ġ~~ {\\","_{* ,","^{(- )}","}* (","]=[ [","^{\\# }(","ale nt","Ġ}(- {\\","crea sing","rightsqu igarrow","' |+",") '_",") ~~,","7 20",": .","A rea","D iag","E A","I u","L aw","O S","S N","X V","] _+","] ].","_ =","a H","b T","d dagger","g b","v A","| )|","| &=|","Ġ ph","Ġ sup","Ġ '\\","Ġ )^*","Ġ !}\\","Ġ\\ }\\\\","^{ },","}{ ^","}} ,\\,","}) |}","}) ]=\\",")} )\\\\","}_{ <",")= ((","nu me","hi ch","ab ility","Ġe A","Ġi q","}+ {{",")) [",")) ^{(","^* }=","Ġ{ -\\","Ġz ero",")}\\ }_{","ĠC r",")}{ -\\","}\\, }^{-","Ġ) /","Ġ) |","Ġ\\{ {\\","_{- }+","^+ }{\\","Ġ^{ {","^- }^{\\","10 5","{- {",")}_{ [","^{* }}(","{| (","'} |\\","22 1","ch ar","Ġ] _","24 5","sc r",")\\; ,\\","&& \\\\","~, ~~~~","}^- ,","yy y","pr in","}_* (\\","llll ll","57 6","}|= |\\","circle arrowleft","gra v","CF T","\\!\\!\\! /","Diam ond","( &","+ }(\\",", -(",". },","4 32",": (\\",": ~\\","C c","E D","F T","H x","J A","J B","N D","N n","Q f","X g","Y Y","[ \\|","[ ]{","] )+\\","a F","f ix","h y","m K","q V","r st","t E","w b","x n","{ >","{ }(","{ ~~","} ~~~.","~ -","~ .\\","Ġ ')","Ġ }}(\\","Ġ )}(\\","Ġ\\ ,\\,\\,\\,\\,","^{ >","(\\ {(",")\\ {\\",")\\ ,\\,\\","}^{ '}_{","}} ^*\\","da fter","}) )^{\\","}) ((","}_{ ~\\",")^ +\\","ro man",")=\\ ,\\","Ġe d",")) ;",")) )\\\\","^* )}{","^* )^{\\","&\\ |\\",")}\\ {","ĠC S","Ġs pan","Ġq p","Ġh e","ĠV u","),\\ ,\\,\\,\\,","}-\\ |","}^{( -\\","}| }.",")\\, .\\","up downarrow","\\} }^{","ĠJ e","_{- (\\","_{- }}{\\","Ġ3 7","}), &","^- }^{","_* \\|^",")! !}{(","}}= (-","Ġ}{ |\\","13 13","})} &\\",")& -\\","23 23","}~ =~\\","14 32","Ġ\\{\\ {","}}\\, {\\",")\\\\& <","Ġ5 4",")}- {\\","}_{+ }^","}_{+ }}\\","}'' (\\","))\\\\ =&\\","Ġ~~~~ \\","$, }\\;\\;","Ġco v",")... (","Ġpo sitive","upper case","expan dafter","nume ral","roman numeral","' )}(","' )&=","= ((","A S","B W","D S","E P","I n","W W","X U","c ite","k U","p T","q R","q X","q rr","v rule","w y","x k","y g","{ ^\\","{ {(","Ġ }}_{","Ġ }\\,.","Ġ\\ >\\","ti me",")\\ }^","de s","}} )]","}} }}.","}} )^\\","}} _{\\{","Ġ+ &","Ġx u","Ġ\\\\ \\|","}_ +(\\","|\\ !\\","), ~~\\","ab q","}}\\ {\\","}}\\ ,\\,","Ġt ri","Ġ\\, :=\\,","\\| }_",")}\\ ;\\",")}\\ ;,","ĠC D","Ġ. }","ĠB C","Ġm c","}| |^{","}| }{|\\","Ġ\\| .",")| &=|","ĠK u","\\} >","_{( (","_{- }=\\","Ġ}\\ |","Ġ3 5","sp in",")}) _","}& (\\","^{* *}(","})^{ *}","}^* -","_{+ }=\\",")}=\\ |","23 5","long leftarrow",")\\\\& >","Ġ&& \\\\",")> (","ia n","}^{* })^{","}$ ,","}_+ .","}\\! =\\!","^{(- )}_","!\\!\\!\\!\\ !\\!\\!\\!\\","}~~ ,","Ġco sh","CP F",",* }_{","&* \\\\","inu ous","ctu re","! }\\,\\","$ ;","' )}_{","- ))","2 13","7 1","; ~","; ~~","C K","D h","D TE","G en","I L","M d","[ .","\\ })+\\","] )-","] }},","] ~,","a R","j S","r P","| }-\\","| )}{\\","| }|\\","Ġ *}","Ġ\\ :\\:\\","ra n","}\\ ,\\,\\,\\","{\\ {}","Ġ= :\\","left eqn","}} }\\,\\","}) )}\\","}) |.","}) ~.","Ġx e","), &&","ll corner",")=\\ ,",")=\\ |\\","sq subset","Ġt X","Ġi b",")) ].","\\, ;\\","\\, :\\,\\","\\| }_{","Ġ{ {{","Ġ&= :","Ġk t","Ġ} ;","&= {\\","&= (-","ĠC a","ĠC f","Ġs x","ĠB x","ĠR m","Ġm o","Ġ\\; +\\;",")\\, [","\\} &=\\","^+ |","^- ),","') :=","... <","}\\| =","}^* }\\","Ġo ne","}; \\\\\\","_{[ -\\","~~~~ ~~\\","}' -\\","Ġ] (","Ġ12 0","}:=\\ {(","kl y","ii int","Ġin de","Ġ5 0","Ġ5 2","Ġ&& &&","en sure",")^{( |","}> =\\","ie ld","}^- }","36 0","Ġ~~~~ ~~","he ad","Ġre s","38 4","ea kly","ensure math","$ }}\\","+ ||","> +\\","A rg","F l","H L","L G","N q","U W","W e","c V","e H","f X","i ij","m D","m E","n U","o o","p V","q M","r X","u q","x C","y L","z P","z p","| }^{\\","~ }\\","Ġ ar","Ġ ga","in i","{\\ \\",",\\ \\\\\\","}} )\\\\","}} ]=","}) }|","}) ({\\",")} |^{","^{- +}_{","}, ~~\\","Ġ\\\\ (-","ho l","\\\\ {\\","se ch","Ġa y","sq cap","}^{\\ {","Ġ\\, {","}+ ||\\","^* }}\\","^* \\|_","Ġ{ =}","&\\ !\\!","Ġg ra","Ġ} :=\\","Ġc J","ĠP l","ĠV LC","),\\ ,(","or em",")| :",")| _\\","min S","un ded","^+ |^","}^{- }_{","}] _\\","di ff",")] +[","sp t","))\\ |","^- )-","}}^{ {","^{* })\\",")}} )\\","}^* _\\","_{+ },\\","~~~~ &","\\; (","13 6","}' +\\","|| =",")& \\\\","+| |\\","})+ {\\","\\! {\\","}}- {{","}^{+ }=","pq r","Ġ}} ^\\","}> =","}_{- }(\\","Ġ~~ .","}^{* })","}^{* }}(","}_+ ^{","XY U","supset neq","tit y","Ġ~~~ ,",")... \\","Ġprob ability","den tity","! )","! ,","$ .","$ }=","& $","& :=\\{","' +(",") )}+\\","+ ~\\","0 8","< \\,","= {{\\","> -\\","A g","A p","C m","D a","F r","H J","I nt","J S","K I","K P","L N","M as","R HS","S q","T race","U f","X H","Y B","[ -(","] )-\\","^ !(","a Z","f w","j C","k in","o ve","r B","s N","s si","t K","w d","x r","{ <","| )=","| -(","| )}{|","Ġ }\\,,","}\\ }\\\\","}{ }\\","_{\\ ,\\","math ord","}^{ '}\\","}} }\\\\","}} /\\","}} }{|","}} +|","Ġ& +(","me tri","Ġ( }","}) _{(","}) )}{\\","}) }\\|",")} *",")} ;\\",")} ,\\,","}^ -(\\","Ġ\\\\ .","Ġf d","Ġa f",")) :=",")) )(\\","^* )}{\\","\\| ^{-","Ġv v","Ġp ri",")( {","Ġc r","geq q","ĠS T","ĠM f","Ġ-\\ !","Ġ=\\ ;\\","text super","ĠN C","12 6","}| &\\","'( |","Ġ\\; (\\",")}( {","Ġ&\\ |\\","}] -\\","}] =(","_+ ),","_+ }(\\","11 7","Ġ^{ +}\\","10 24","_- ),","_- ).","}& \\\\","]= &\\","}}_{ {","}}= &\\","Ġ}{ (\\","\\}\\ {","}; \\\\&",",- ,","}}=\\ {","il t",")\\\\&= &",")\\\\&= (-","}&= (-","}}+ (\\","=& (\\",")\\,\\ ,\\,","}:= -\\","\\,\\, .","diamond suit","Ġca se","321 4","mathc lap","Ġuni formly","textsuper script","& :","' .\\","' ]=",") }^{(\\","+ }_","3 15","A b","D I","D k","E Q","E S","H t","H v","K T","S u","X e","Z F","\\ })}","\\ ,\\,\\,\\","] )(","] :\\","_ ,","a su","c T","f inite","h w","k ji","p la","s ol","t W","v b","w u","w z","{ }&\\","| })\\","| |^{","^{ ''}","}\\ #","ta b","in imize","th ick",",\\ |\\","}} ](","Ġ& ,\\\\","}) ~\\","}) )=(",")} >\\","pi cture","Ġd N","Ġd Q","), }","\\\\ |\\","Ġf ree","Ġf rom","}}\\ }\\","Ġe m","Ġ\\, =\\,\\","Ġi v",")) <","^* )(\\","Ġ{ ^\\","ĠC c","ĠT X","Ġs T","Ġs low","Ġq r","ĠP rob","ĠS M","ĠS tr","Ġ[ [\\","Ġ-\\ |","Ġ_{ -}","}| ,\\","}| },","Ġ\\; :\\;",")}( -\\","\\} ]","\\} |\\","}}{\\ |\\","_{- }}{","}] )=","}] \\,","_+ )}^","!\\ ,\\","^- }^","Ġ: &=","}}^{ -\\","}\\,\\ |","):= [",")}= &","}; \\,","|| _\\",")& (",")& +\\","}\\; ,\\","([ (","14 2","): (","\\! =\\!","=& -","}^+ )","}^{* }.","ie A","arg min","_{* }}","\\: :\\:","_{\\{\\ {",")$ .}","cu rve",")_+ ,","}=& ~\\","circle d","]\\! ]}","Ġ\\!\\!\\ !\\!","inde x","Ġbound ary","center dot","! }+\\","$ }}_","& ,\\","' =-\\","* }_",". (\\",". \\\\&","3 12","E E","F E","F f","G T","I f","J I","M Q","M x","N K","P W","P o","P rob","R A","V u","\\ }=-\\","\\ })-","] }}.","a Y","c F","c line","g V","i ab","j Z","r H","x K","x c","{ /","{ }=","_{ ;\\","}{ }^\\","{\\ !\\!",",\\ !","right rightarrow","}} '","}) ]^{","}) }\\\\&\\","+\\ ;\\","}_{ _","}_{ ,\\","Ġd iff","ho st","}^{\\ ;\\;","Ġt race","}= &(",")^{ *}\\","line ar","^* ||","\\, ,\\\\&","ĠA ut","Ġ, ~","},\\ \\{\\","Ġ&= &\\","Ġk a",")( |\\","Ġ} ]",":= {\\","Ġb s","ĠC F","Ġr ed","Ġs h","Ġs ti","ĠP V","12 7","}\\, +\\,\\","ds dt","&=\\ |","ĠG eV","Ġ) :=\\",")| -\\","Ġ:= (","Ġ+\\ !","^+ ]","^+ }(\\","}^{- {\\","}] ).","}] }.","}] =-\\","'' )^",")_ -\\",")] [\\",")] \\\\&=",")] -[","Ġl arge","Ġ(- )^{","^- |^","_* ^{\\","^{* }{\\","]= (\\","{| }\\","):= (-","\\; ,\\\\","),\\\\ (\\",")}=\\ {","}' )^","23 14","23 41","\\}} +\\","14 0",")\\\\& +(","})_{ *}",")\\; .\\","); (","ac t","34 7","}\\\\&= (\\","}^{* }=","}_{+ }.","_{* }^","}'' \\","{}{ ^\\","):\\ :","43 21","SI R","ĠCo eff","two head","rightrightarrow s","! ^{","' )/","' \\|_","( .",") '+","4 123","4 132","A E","A q","C Z","D Y","D z","F N","H C","H o","I S","J d","L ie","P I","S B","U A","V ec","\\ }\\,\\","] \\|","] )_{","] ,\\;","_ !(","a U","f a","f box","l v","s D","s P","u se","u tion","Ġ )=-","Ġ )\\,.","Ġ subject","^{ }_{\\","}\\ \\\\\\","}\\ })=\\","}{ @{\\,}","Ġ= ~",")\\ ;\\;\\;","=\\ ,&","-\\ ;","Ġ+ }","mu ta",")} ~.","var limsup","}, |\\","|\\ :","Ġt f","Ġe ss","Ġe lement",")^{ +",")) ))","\\, +\\","Ġv al","},\\ :","},\\ ,\\,\\","}=\\ ,\\","[\\ ![","Ġc s","ĠC H","ĠC R","ĠE xt","),\\ ;\\;\\","}\\, :\\,","Ġ_{ +}\\","Ġ\\; \\,",")| |_","ĠU V","Ġ+\\ |\\","^+ }^","Ġ< +\\","Ġ}\\ ;\\",")_{ |\\","}[ {","Ġ,\\ ,\\,","_* )^","', -","_- }^{","_- )}",")! !\\",":\\ !\\","') )=","^{* *}\\",")}= (-","}|\\ ,","Ġo ther","ik j","13 42","|| }","}~ ,~","}~ +~","}: (","}:= {\\","|\\, .","small frown","'= (\\","34 12","34 21","}\\\\&= -","\\},\\ ,","}$ }.","^{' }+","56 0","{}{ =}\\","dxdy dz","Ġad j","Ġ_{- }\\","meds pace","triangleleft eq","\\}-\\ {","Ġha ve","Ġsti ff","& ,\\\\","' })=\\",") )}-",". ~\\","3 00","< |\\","= +","F F","G A","H V","I A","J y","K Z","L X","L k","M K","N B","N v","Q x","R O","T c","T s","U v","U x","\\ }^\\","\\ })\\\\","c D","e b","p R","p U","q U","r I","s G","s L","| )+\\","Ġ }}-","Ġ )\\,,","Ġ\\ },\\\\\\","^{ {(","}\\ {|","}{ ]}{",")\\ }}\\",")\\ !\\!","}} |_{\\","Ġ& ~~","}) )(\\","}) |_{\\","}) &:=","Ġ- (-\\","+\\ \\",")} /\\","Ġx q","), [\\","Ġf o","}}\\ },","Ġt v","Ġt op","Ġ\\, ;",")) )-",")) }},","ĠA z","Ġg r","Ġk m","&= |\\",")}\\ },",")}\\ |_{\\","ĠC M","ĠH P","ĠD R","co nt","ĠI nd","}| )^{","}| +|\\","Ġ) &","Ġ\\; =\\;\\",")\\\\ -\\","Ġ\\| ,","Ġ&\\ ,\\",")| ,\\",")+\\ \\&",")^{- {",")}{\\ |\\","un iv","^+ }}","'' )=",")] =-","Ġ$ -","Ġ$ [",")/ {","'\\ }\\","dy n",")}_{ =","Ġ~ &","}}^{ *}\\",")}) ^*","') &=\\","^{* })^{","\\}, ~","}|\\ \\","_{+ }-\\","_{+ }^{(","),\\\\ &(","21 43","\\\\& +(","Ġ] _{\\","Ġ&=\\ |","\\! :\\!","}}}{ |\\","}^{+ }}","arrow right","))=\\ {","pq i",")\\| =\\",",& {\\",",& &\\",")}\\\\ =&\\","ijk t","small int","}^{* }}","{[ }{]}{","}$ .}","\\,\\, ,","ond i","an ti","96 0",")_+ ^{","))\\\\&= (","\\|=\\ |\\","Co nt","comp lement","# (\\","& :=(","' }[","' })^","* }\\|","* {$\\","+ )\\","- }_{\\",": \\|","> \\,","C Y","C d","C u","F X","F v","G P","H F","K i","L F","M p","O C","P X","P Z","P a","R X","S V","Z X","\\ }}^","\\ ;\\;\\;\\;","e o","g K","h ape","j F","k E","n G","n W","n Z","p dx","r V","r ig","s at","s to","t J","u k","w henever","x E","y h","y k","y eq","z b","| )-","Ġ _+","Ġ inf","Ġ )}=","Ġ )=-\\","Ġ }}\\,","ra ble","}{ _","Ġ= (-\\",",\\ \\{","}( ^{\\","}} })\\","Ġ( *",")} ]_{","^{\\ {\\","Ġx yz","Ġ0 1","Ġd C","end bmatrix","\\\\ {","bo und","}}\\ |^","Ġa e","Ġa v","Ġ2 40","Ġt erm","}= {{\\","^{( {",")) ~",")) )^","^* _{(","^* ({\\","\\| )\\","Ġ{ ^","Ġ{ {(","Ġ{ }^*","to tal","Ġv u","},\\ ;\\;\\","Ġp s","Ġ| }{","Ġ} :","Ġc e",")}{ {","ĠB NC","ĠP D","ĠS NR","ĠD S","ĠD iag","})\\ }\\","12 23","its hape","'( {\\","Ġ\\; ,\\","^+ )}","^+ )=\\",",\\, |\\","}] \\\\&=","id y","_+ )}","_+ )=",")_{ (\\","'' )=\\","Ġdx d","Ġ3 1","Ġ4 9","})= [","))\\ |^","_* [","_- +\\","Ġ~ ^{","') }}","') ),","]} :","}^* )^","}^* )^{","\\; |\\;",",\\\\\\ \\\\",")& :=\\{","Ġ/ (","14 6","14 7","})_{ ,","^{[ -",",\\\\& (",")}\\, ,\\","}$ }\\","}^{[ {\\","^{' }}",",+ }\\","ke w","po st","\\,{ ,}","WZ W","ĠCo v","{* }{","@{ }}{\\","Ġsatisf ies","black triangleright","url yeq","twohead rightarrow","! }+","' $","' }}.","' }_\\","' )})","' }=(",". -",". $\\","< ...<","A G","B Y","B z","E N","E X","G al","G UT","H h","Q v","R u","U parrow","\\ ;\\;\\;\\","] ))","] ),\\","] ]\\","] )&=\\","a ff","b F","b P","c A","c N","e w","g L","j G","l z","m C","p C","q N","s F","s on","t I","v d","w a","x l","z J","z dz","| ;","Ġ ),\\\\","Ġ }}_","Ġ }}}\\","Ġ\\ }}\\","^{ ,","ra int","}\\ ,\\,\\,\\,\\,","ig en","le s","Ġ= -{","_{\\ :",")\\ \\{",")\\ },\\\\","=\\ {(\\","}} }}{{\\","Ġ( (-","}) }}.","}) ]^",")} :\\","Ġx p","}_{ {{","Ġd G","|\\ {\\","|\\ }}",")= <","\\\\ +","\\\\ \\\\\\","Ġe q","Ġ\\, _","Ġ\\, &=\\","lim it","Ġi T","Ġi c","ine d",")) <\\",")) -(\\","^* {\\","^* &=","^* }}{","^* (-","\\, -","\\| <\\","\\| }{\\|","Ġk r","&= -(","pa ct","pa ir","ĠC C",")}{ }_{","ĠL L","ĠR F","ĠR f","Ġ-\\ ,\\","Ġ=\\ !","Ġ=\\ |\\","}\\, )",")| |_{\\","iv alent","_{- }^{(",",\\, (","'' |","'' '\\",")] \\\\&+","Ġ3 8","re c","re ct","'_ -","_- }{\\",")! \\,(",":\\ ;\\","}& \\|","') |^","}\\| =\\","\\|\\ \\","_{+ }}{","\\}\\ },","Ġ\\\\&= :","\\; ,\\;","22 0",")), (","xx t","24 6","AB R","})\\\\ &=(",",\\\\& [","}\\\\& <","}\\\\& +(","}^+ )^",",\\,\\,\\,\\ ,\\,\\,","34 56","}$ },","^{*} _\\","Ġ7 0","Ġ9 0","^{' }}}\\","_+\\ ,","MN P","}:\\ ;",")$ },","}\\,\\, .","po ch",",\\;\\;\\ ;\\;\\;",")\\! -\\!","{. }{",")* (","Ġsin h","ĠCh ar","+& +&","Ġcont inuous","Ho ch","' =\\{","( {-",") {{",") ~~.","* }{",", }(","- }_","- ),","2 10","A N","A k","B i","E L","E rr","F R","G x","J L","L h","L s","N y","P s","S pl","] '","] <","] >","] |_{","] })=\\","a L","a ng","c Z","e Q","i us","k Y","m ic","s J","t erm","u c","Ġ ?","Ġ al","Ġ la","Ġ ^+","Ġ ',","Ġ !}{","Ġ local","Ġ almost","Ġ\\ ,\\,\\,\\,\\,\\,","^{ }_\\","}\\ }_{\\","ma g","al ity","(\\ #","{\\ ,\\","}} ],","}} _*","Ġ( {{\\","}) ~,",")} ]=\\",")} *\\","^{\\ ,(","big uplus","var ia","}, ~~~~","Ġ\\\\ \\,","}_{ -(","}_ !\\","nu l","^* &","}- [","Ġv w","Ġk z","Ġ} [\\",":= |","ĠC A","\\{ -(","ĠB D","}_{\\ !","ĠL x","ĠL emma","}+\\ {","Ġm p","ĠS x","ĠD T","ĠD X","co lu","{( |\\","&=\\ {\\","}| -\\","Ġ) {\\","\\} <\\","Ġ}\\ \\\\","}] ),","}] _+","}[ -\\","Ġ^{ *}\\","+( |","}}^{ +\\",")}) _{\\","') '","io n","\\; ,\\;\\;",")}=\\ |\\","}' _\\","on al","24 8","}\\; (","}}\\, ,\\","Ġ; \\,","}}}{ {{\\","pq j","); \\\\&","})) }^{","}\\\\&= (-",")[ -","Ġ=- {\\","}]= [\\","^{' }(\\","]\\\\ =&\\",",.. ..,","{, }\\","^{\\# }","Ġst r","BR ST","gra ph","Ġed ge","asu rable","colu mn","$ &$","& ,","& \\\\&","' )\\\\","' ],",") ',",") )}(\\",") '=\\","* {\\",", <",", *}(",". -\\",": \\\\","F H","F rob","G f","I C","I P","I eq","J N","K G","M B","M h","Q X","R N","S K","S t","V e","Z f","\\ }=(","\\ ,\\,\\,\\,\\,","] }-\\","] }\\\\","] ~~~,","] ~~~.","b E","e L","i ik","k Q","l mn","m F","m I","q l","t R"]}}